<pad>	0
<unk>	0
<s>	0
</s>	0
.	-2.56293
▁and	-3.23285
▁the	-3.30073
,	-3.30674
▁to	-3.57032
▁a	-3.66234
▁was	-3.85702
▁it	-4.45327
▁"	-4.53815
▁She	-4.57085
▁her	-4.57606
▁He	-4.60027
▁They	-4.6479
'	-4.65991
▁The	-4.81795
▁he	-4.84994
▁said	-4.86377
s	-4.87946
▁in	-4.95487
▁Lily	-4.96144
▁she	-4.97268
▁with	-4.97436
▁his	-5.04627
▁day	-5.10443
▁that	-5.12274
▁of	-5.14303
▁had	-5.23265
▁they	-5.2376
▁so	-5.2515
▁you	-5.25933
▁on	-5.27997
▁	-5.30848
▁for	-5.40919
▁very	-5.47577
▁time	-5.50089
!	-5.50099
t	-5.50218
▁little	-5.5079
▁there	-5.52165
▁mom	-5.53221
▁happy	-5.54129
▁It	-5.56932
▁is	-5.59663
▁big	-5.60292
▁saw	-5.60809
▁not	-5.62233
."	-5.65359
▁One	-5.6637
▁play	-5.71314
▁but	-5.71315
▁Once	-5.72553
▁I	-5.72601
▁were	-5.73635
!"	-5.75108
▁upon	-5.85379
▁wanted	-5.85461
▁girl	-5.86824
▁him	-5.87035
▁are	-5.88788
▁them	-5.90731
▁their	-5.91965
▁up	-5.98469
▁be	-5.99705
▁have	-6.00417
▁Tom	-6.02321
▁went	-6.02914
▁Ben	-6.03282
▁go	-6.08374
▁But	-6.1025
▁friends	-6.10608
?"	-6.12194
▁can	-6.12599
▁Timmy	-6.12709
▁at	-6.12865
▁all	-6.13472
▁named	-6.20695
▁back	-6.2178
▁loved	-6.22363
▁too	-6.24279
▁felt	-6.26437
▁smiled	-6.27861
▁could	-6.28478
▁asked	-6.28957
▁fun	-6.29263
▁like	-6.29908
▁looked	-6.30614
▁around	-6.31087
▁boy	-6.35142
▁out	-6.35347
▁would	-6.41081
▁help	-6.41234
▁see	-6.42471
▁did	-6.44123
▁what	-6.44302
▁make	-6.44854
▁some	-6.45139
▁away	-6.47392
▁started	-6.48593
,"	-6.49438
▁made	-6.49807
▁ran	-6.50174
▁together	-6.50738
€	-6.5089
â	-6.5089
▁park	-6.51499
▁something	-6.51697
▁You	-6.51756
▁says	-6.51805
▁want	-6.52898
▁put	-6.55445
▁sad	-6.5737
▁new	-6.57808
▁from	-6.58662
▁do	-6.58903
▁home	-6.59274
I	-6.59625
▁when	-6.60175
▁again	-6.6158
▁Tim	-6.62806
▁found	-6.62835
▁then	-6.63096
▁bird	-6.63171
▁playing	-6.66786
▁who	-6.6799
▁other	-6.69577
▁things	-6.70099
▁liked	-6.72276
▁got	-6.72603
▁we	-6.7452
▁decided	-6.7468
▁friend	-6.74769
▁came	-6.74819
▁excited	-6.76973
▁down	-6.8016
▁man	-6.80714
▁one	-6.81058
▁scared	-6.81341
▁an	-6.83466
▁Mom	-6.83781
▁find	-6.85079
▁didn	-6.85717
▁dog	-6.85952
▁Max	-6.8619
▁Sam	-6.86681
▁always	-6.86904
▁took	-6.87196
▁get	-6.87276
▁mommy	-6.87842
▁your	-6.88878
▁about	-6.88893
▁Anna	-6.88924
▁tree	-6.88928
▁toys	-6.8991
▁will	-6.90671
▁outside	-6.90681
▁good	-6.91141
▁me	-6.92244
▁When	-6.94769
▁more	-6.9515
▁my	-6.96503
▁thought	-6.9661
▁as	-6.96939
▁take	-6.98408
▁special	-6.98728
▁Her	-6.99765
▁knew	-7.00765
▁dad	-7.00817
▁old	-7.02345
▁toy	-7.03254
▁how	-7.04382
▁car	-7.05593
▁much	-7.06392
▁know	-7.07518
▁So	-7.08572
▁sorry	-7.08876
▁house	-7.0954
▁told	-7.11993
▁Jack	-7.12394
m	-7.12705
▁inside	-7.13752
▁gave	-7.1394
▁tried	-7.14537
▁ball	-7.14702
▁into	-7.14769
▁couldn	-7.16329
▁never	-7.17086
if	-7.17599
▁water	-7.17746
▁look	-7.18097
▁over	-7.1883
▁played	-7.19202
▁heard	-7.19734
▁proud	-7.19989
▁From	-7.20387
▁room	-7.20794
▁each	-7.20947
▁this	-7.21293
▁We	-7.2195
▁because	-7.2222
▁Suddenly	-7.22233
▁hugged	-7.22778
▁Then	-7.24135
▁just	-7.24843
▁His	-7.26207
▁no	-7.27496
▁Mia	-7.2772
▁many	-7.28018
▁Sara	-7.29362
▁nice	-7.29483
▁box	-7.30288
▁bear	-7.31034
▁learned	-7.3111
▁better	-7.33006
▁until	-7.33613
▁And	-7.3363
▁small	-7.34829
▁best	-7.39957
▁eat	-7.40933
▁careful	-7.41942
▁sky	-7.4248
▁thanked	-7.43001
▁don	-7.44714
▁garden	-7.44725
▁even	-7.46725
▁lots	-7.47173
▁laughed	-7.47366
▁long	-7.47398
▁off	-7.4755
▁by	-7.47716
▁end	-7.47758
▁love	-7.48607
▁say	-7.49211
Yes	-7.49309
▁still	-7.49334
▁come	-7.49467
▁beautiful	-7.49522
▁cat	-7.4988
▁animals	-7.51516
▁kind	-7.54145
▁safe	-7.55615
▁feel	-7.55963
▁way	-7.56769
▁As	-7.57216
▁lived	-7.57302
▁both	-7.57419
▁let	-7.58247
▁hard	-7.58268
▁family	-7.59116
▁red	-7.60227
▁After	-7.60302
You	-7.60513
?	-7.60685
▁every	-7.61011
▁two	-7.61158
▁people	-7.62022
▁brave	-7.62187
▁hurt	-7.62617
▁called	-7.62763
▁A	-7.62993
▁flew	-7.63087
▁sun	-7.63124
▁Lucy	-7.63169
▁walked	-7.63705
▁loud	-7.63804
▁angry	-7.64559
▁give	-7.64711
▁soon	-7.65043
▁try	-7.65306
▁kept	-7.65912
▁share	-7.65951
ed	-7.66569
ing	-7.66751
▁pretty	-7.67629
▁bad	-7.67633
▁or	-7.68106
▁going	-7.69672
▁ground	-7.7044
▁shiny	-7.70461
▁opened	-7.70741
▁John	-7.72534
▁noise	-7.73051
▁run	-7.73247
▁before	-7.73457
It	-7.73969
▁should	-7.73989
▁fast	-7.7443
▁hug	-7.75021
▁explore	-7.75091
▁lot	-7.75335
▁feeling	-7.75548
▁door	-7.75588
▁Every	-7.75889
▁also	-7.75956
▁picked	-7.76047
▁idea	-7.7661
▁while	-7.76645
▁now	-7.7757
▁its	-7.78038
Let	-7.78077
▁next	-7.78423
▁keep	-7.78684
▁Mommy	-7.79006
▁has	-7.79684
▁walking	-7.79993
No	-7.81065
▁nodded	-7.81068
▁smile	-7.81432
d	-7.81723
▁show	-7.8274
▁need	-7.82886
▁being	-7.84344
▁looking	-7.86837
What	-7.8714
▁place	-7.87365
▁stopped	-7.8762
▁food	-7.87749
▁clean	-7.87801
▁Bob	-7.88069
-	-7.88462
▁noticed	-7.88952
▁eyes	-7.896
▁slide	-7.90159
▁forest	-7.90834
▁hands	-7.9113
▁ever	-7.9121
▁showed	-7.91423
▁great	-7.91449
Thank	-7.91942
▁truck	-7.92075
▁flowers	-7.92879
▁everyone	-7.93094
▁hand	-7.93462
▁fish	-7.93745
re	-7.94287
That	-7.95145
▁okay	-7.95219
▁important	-7.95334
▁where	-7.95436
▁Sue	-7.95844
▁listen	-7.96109
This	-7.96193
▁right	-7.96653
▁blue	-7.97555
▁bed	-7.97982
▁quickly	-7.98053
▁replied	-7.98384
▁after	-7.98717
▁watched	-7.98755
▁Spot	-7.99316
▁became	-7.99471
▁rabbit	-8.00641
▁cake	-8.01071
▁sure	-8.0135
▁stay	-8.01416
▁work	-8.02099
▁high	-8.02188
▁fly	-8.02238
▁been	-8.02276
▁walk	-8.02623
▁goodbye	-8.03359
▁face	-8.03524
▁boat	-8.04423
▁anymore	-8.04588
We	-8.04594
▁closer	-8.04652
▁Jane	-8.04815
▁different	-8.05252
▁store	-8.05793
▁voice	-8.05801
▁doll	-8.06001
▁strong	-8.06214
▁curious	-8.0705
▁Sarah	-8.07377
▁mean	-8.07609
Look	-8.08269
▁head	-8.08796
▁first	-8.09732
▁helped	-8.10045
▁Lila	-8.10051
▁fell	-8.10261
▁our	-8.10322
▁use	-8.10418
▁Everyone	-8.10639
▁warm	-8.11434
▁night	-8.11707
▁happened	-8.11782
Can	-8.12568
▁three	-8.12599
▁kitchen	-8.13046
▁grabbed	-8.1382
▁dress	-8.14008
▁story	-8.14566
▁wait	-8.1499
▁only	-8.15043
▁glad	-8.15188
▁Dad	-8.15835
▁realized	-8.15913
▁does	-8.15919
▁adventure	-8.1615
▁here	-8.16187
▁jumped	-8.16739
▁birds	-8.17278
▁us	-8.17671
▁reached	-8.18176
▁book	-8.1824
▁grass	-8.18443
▁having	-8.19032
▁That	-8.19594
▁cry	-8.19841
▁watch	-8.1986
▁sees	-8.20237
▁ate	-8.20798
▁bright	-8.20828
▁ready	-8.21384
▁yummy	-8.21446
▁through	-8.21515
▁open	-8.21755
▁bit	-8.2206
▁world	-8.22111
▁game	-8.2213
▁really	-8.23355
▁shouted	-8.23712
▁Let	-8.24238
▁began	-8.24243
▁favorite	-8.24314
▁rock	-8.24318
▁himself	-8.24674
▁tired	-8.2504
▁am	-8.25401
▁used	-8.26006
▁thing	-8.26178
▁mum	-8.26383
▁learn	-8.26642
▁name	-8.26878
▁done	-8.27101
▁than	-8.27245
▁coming	-8.27269
▁making	-8.27379
▁funny	-8.27638
▁Can	-8.27695
▁Do	-8.27701
▁kids	-8.27741
▁lady	-8.27824
▁Joe	-8.28455
▁worry	-8.28599
▁brother	-8.28643
▁seen	-8.2876
▁pond	-8.28796
▁Sally	-8.28839
▁cried	-8.29437
▁another	-8.29774
▁flower	-8.30012
Wow	-8.30112
▁top	-8.30251
▁why	-8.30314
▁care	-8.30554
▁stop	-8.30665
▁waved	-8.30782
▁near	-8.31053
▁bunny	-8.31153
▁soft	-8.3136
▁catch	-8.31414
▁looks	-8.31605
▁parents	-8.31717
▁cars	-8.31995
▁paper	-8.32301
▁Tommy	-8.32954
▁under	-8.32973
▁hole	-8.33127
▁green	-8.33135
▁surprise	-8.33562
▁lesson	-8.33607
▁Benny	-8.3369
▁yellow	-8.34359
▁behind	-8.34522
▁remembered	-8.34544
▁floor	-8.34557
▁full	-8.34979
▁worked	-8.35181
▁running	-8.35277
▁hopped	-8.35397
▁wished	-8.36551
Don	-8.37005
▁touch	-8.3747
▁trees	-8.37516
▁blocks	-8.37532
▁lost	-8.37629
▁happily	-8.37876
e	-8.38145
▁needed	-8.38742
▁doing	-8.38983
▁mouse	-8.39034
▁pick	-8.39188
▁cold	-8.39319
▁think	-8.39698
▁butterfly	-8.40122
▁picture	-8.40337
▁carefully	-8.40376
ll	-8.40519
▁years	-8.40976
▁surprised	-8.41139
▁left	-8.41221
▁-	-8.41607
▁tell	-8.41962
▁enjoyed	-8.42108
▁held	-8.42249
▁finished	-8.42307
▁sat	-8.42767
▁wrong	-8.43112
▁ice	-8.43465
▁hear	-8.43537
▁wind	-8.43983
▁followed	-8.44133
▁move	-8.44241
▁Finally	-8.4429
▁There	-8.44558
▁dark	-8.44676
▁close	-8.44963
▁herself	-8.45038
▁Now	-8.45139
▁anything	-8.45437
▁Billy	-8.45978
▁cool	-8.46049
▁climb	-8.46325
".	-8.46461
▁buy	-8.46551
▁hat	-8.466
▁children	-8.46867
▁likes	-8.47242
▁friendly	-8.47362
▁table	-8.47908
▁wonderful	-8.48455
▁Daisy	-8.48549
▁hill	-8.48573
▁bag	-8.48941
▁arrived	-8.49053
▁rain	-8.49132
▁sound	-8.49155
Hello	-8.49228
▁delicious	-8.4942
▁far	-8.49756
▁please	-8.505
▁own	-8.50626
▁grandma	-8.50676
▁colors	-8.5086
▁someone	-8.51053
▁Molly	-8.5129
▁frog	-8.51711
▁filled	-8.52197
▁gone	-8.5233
▁tall	-8.52459
▁continued	-8.53044
▁broken	-8.53141
▁able	-8.53311
▁swing	-8.5393
▁sweet	-8.53997
▁leaves	-8.54141
▁else	-8.54585
▁stick	-8.54595
▁read	-8.54974
▁ask	-8.55065
▁window	-8.55645
▁fire	-8.55906
▁jump	-8.56488
▁lion	-8.56639
▁pink	-8.56997
▁baby	-8.57096
▁mess	-8.57958
▁understand	-8.58052
▁amazing	-8.58069
▁any	-8.58359
▁laugh	-8.59128
▁forgot	-8.59263
▁hot	-8.59473
▁castle	-8.5948
▁getting	-8.59554
▁enough	-8.59621
▁Maybe	-8.59817
▁dinner	-8.60031
▁white	-8.60031
▁agreed	-8.60086
▁morning	-8.60442
▁yes	-8.60455
▁books	-8.60511
▁pictures	-8.60592
▁set	-8.60739
▁mother	-8.60752
▁stayed	-8.60836
▁wants	-8.60923
▁Amy	-8.61173
▁scary	-8.61219
▁cookies	-8.61359
▁hair	-8.61417
▁trying	-8.61653
▁fix	-8.62013
▁finally	-8.62159
▁sometimes	-8.62168
▁climbed	-8.62213
▁hungry	-8.6279
▁Jill	-8.6305
▁clothes	-8.64334
▁smiles	-8.64399
▁brought	-8.6444
▁turned	-8.65281
▁wet	-8.65289
▁talk	-8.65323
▁daddy	-8.65464
▁few	-8.65899
▁listened	-8.65993
▁light	-8.66457
▁strange	-8.66932
▁everything	-8.66939
▁others	-8.67683
▁wasn	-8.67856
▁ride	-8.68064
▁beach	-8.68078
▁air	-8.68202
▁puppy	-8.68213
▁rest	-8.68565
▁moment	-8.69103
▁waited	-8.69244
▁What	-8.69785
▁amazed	-8.70012
▁tail	-8.70111
▁cream	-8.70199
▁alone	-8.70752
▁duck	-8.71515
▁silly	-8.71729
▁thank	-8.71773
▁teddy	-8.72424
▁Soon	-8.72437
▁makes	-8.7279
▁woods	-8.73002
▁asks	-8.73443
▁leave	-8.73484
▁joy	-8.73591
▁sit	-8.73604
▁draw	-8.73899
▁hide	-8.73903
ly	-8.74168
▁squirrel	-8.74198
▁lake	-8.75134
▁All	-8.75378
▁flying	-8.76131
▁might	-8.76506
▁pulled	-8.76788
▁dance	-8.7687
▁promised	-8.7727
▁towards	-8.77815
uch	-8.7864
▁pretend	-8.78814
▁pieces	-8.78917
▁perfect	-8.7914
▁sing	-8.79144
Oh	-8.79277
▁shared	-8.79343
▁bigger	-8.79404
▁wear	-8.79429
▁fox	-8.79776
▁won	-8.79841
▁owner	-8.79975
▁moral	-8.80029
▁sister	-8.80218
▁living	-8.80785
Maybe	-8.8085
▁thinks	-8.81165
▁runs	-8.81417
▁candy	-8.81737
▁party	-8.82126
▁bike	-8.82199
▁everywhere	-8.82378
But	-8.82427
▁grateful	-8.82489
▁music	-8.82567
▁enjoy	-8.82587
Okay	-8.82948
▁slowly	-8.83029
▁dolls	-8.83037
▁side	-8.83118
▁job	-8.83345
▁deep	-8.83907
▁worried	-8.83995
▁visit	-8.8403
▁In	-8.84205
▁faster	-8.84278
▁money	-8.84519
▁magical	-8.84536
▁broke	-8.84578
▁reach	-8.84625
▁join	-8.84754
O	-8.84764
▁sleep	-8.8479
▁sand	-8.85235
▁Mama	-8.85268
▁bug	-8.85281
▁colorful	-8.85442
▁race	-8.85567
▁hold	-8.86126
▁cut	-8.86343
▁helping	-8.86578
▁met	-8.86995
▁crying	-8.87404
▁train	-8.8827
▁most	-8.88466
▁s	-8.88667
▁dangerous	-8.8922
▁stepped	-8.89495
▁farmer	-8.89638
▁monster	-8.90406
ever	-8.90464
▁Jimmy	-8.90611
▁remember	-8.90663
Sure	-8.90867
▁heavy	-8.90883
▁princess	-8.91233
▁smart	-8.91364
▁river	-8.92174
▁spot	-8.92245
▁twins	-8.92331
▁Daddy	-8.92467
▁mouth	-8.92603
▁words	-8.92609
▁dragon	-8.92675
▁field	-8.9289
▁tower	-8.92961
Mom	-8.92999
ir	-8.9307
▁across	-8.93217
▁Emma	-8.93222
▁dirty	-8.93223
▁stuck	-8.9336
▁same	-8.9336
▁closed	-8.93498
▁song	-8.93574
▁eating	-8.93574
▁threw	-8.93719
▁doctor	-8.93828
▁wouldn	-8.94089
▁swim	-8.94411
▁Fluffy	-8.94527
▁Just	-8.946
▁tight	-8.94816
▁bowl	-8.94926
▁balloon	-8.95584
▁blanket	-8.95806
▁bite	-8.95814
Hi	-8.95915
▁Mary	-8.96938
▁pushed	-8.9711
▁treasure	-8.97556
▁turn	-8.97806
Mommy	-8.98456
▁hoped	-8.98555
▁without	-8.98795
▁wall	-8.98811
▁believe	-8.98851
▁hit	-8.99128
▁clapped	-8.99416
▁feels	-8.99459
▁Mum	-8.99595
▁town	-8.99644
▁Grandma	-8.99738
▁school	-9.00103
▁fence	-9.0018
▁fairy	-9.00572
▁cheered	-9.00961
▁start	-9.01216
▁break	-9.0139
▁yard	-9.01804
Why	-9.01847
▁quiet	-9.01937
▁brown	-9.02117
▁drove	-9.02195
▁higher	-9.02528
▁lonely	-9.02587
▁teacher	-9.02593
▁today	-9.02744
▁paint	-9.03254
▁upset	-9.03456
▁chase	-9.03693
▁black	-9.03773
▁adventures	-9.04075
▁longer	-9.04125
▁gentle	-9.04171
▁welcome	-9.04375
▁turns	-9.04577
▁child	-9.04812
▁explained	-9.04821
▁wings	-9.04861
▁course	-9.04892
▁swings	-9.05178
▁noises	-9.05218
▁suddenly	-9.05219
▁Inside	-9.057
▁bring	-9.06166
▁games	-9.0647
▁soup	-9.07099
▁piece	-9.07243
▁must	-9.07251
▁animal	-9.0757
▁dropped	-9.07582
▁sign	-9.07969
▁forget	-9.084
▁On	-9.08541
▁swam	-9.08575
▁stories	-9.08662
▁sang	-9.08745
▁backyard	-9.08829
▁build	-9.09025
▁late	-9.09073
▁Later	-9.0908
▁wish	-9.09236
▁pet	-9.09325
▁apple	-9.09418
▁well	-9.09912
▁orange	-9.10014
▁fight	-9.10045
▁owl	-9.10172
▁naughty	-9.10601
▁taking	-9.10772
▁hugs	-9.10802
▁dry	-9.10802
▁pocket	-9.1087
▁jar	-9.11044
▁rocks	-9.11113
▁magic	-9.11263
▁exploring	-9.11886
y	-9.12413
▁along	-9.12826
▁seemed	-9.13027
f	-9.13259
▁wise	-9.1334
▁singing	-9.13341
▁shook	-9.13451
▁young	-9.13659
▁caught	-9.13714
▁nearby	-9.13715
▁moved	-9.13795
▁sea	-9.13797
▁woke	-9.13802
▁lunch	-9.13977
▁shoes	-9.14373
▁though	-9.14678
▁Sammy	-9.14777
▁tiny	-9.14952
▁stars	-9.15324
▁secret	-9.15807
▁elephant	-9.16079
▁snow	-9.16193
▁monkey	-9.16806
▁bench	-9.16924
▁heart	-9.17132
Lily	-9.17159
▁nap	-9.17721
▁bucket	-9.17723
▁kite	-9.17908
▁shapes	-9.18017
▁chair	-9.18277
▁mine	-9.18297
▁branch	-9.18478
▁star	-9.18614
▁juice	-9.18945
▁arms	-9.1898
▁busy	-9.19042
▁dream	-9.19169
▁real	-9.19205
▁sick	-9.19212
▁bee	-9.19356
▁afraid	-9.19873
▁mad	-9.20039
▁wondered	-9.20172
▁nest	-9.20619
▁sitting	-9.20633
▁nose	-9.21125
▁year	-9.21422
▁accidentally	-9.21664
▁round	-9.21792
"	-9.22365
▁drink	-9.22392
▁gift	-9.22488
▁daughter	-9.22523
▁forever	-9.22757
▁driver	-9.22927
▁cute	-9.23561
▁basket	-9.23701
▁farm	-9.23744
▁fall	-9.23751
▁Mr	-9.24015
▁pull	-9.24197
▁street	-9.24288
▁exciting	-9.24362
▁Thank	-9.24379
▁cozy	-9.24656
▁key	-9.24685
▁sounds	-9.24792
▁relieved	-9.25246
▁nothing	-9.25443
▁hello	-9.25481
▁holding	-9.25809
▁comes	-9.25873
▁laughing	-9.2593
▁takes	-9.26112
▁huge	-9.26141
▁journey	-9.26236
▁fit	-9.26383
The	-9.26682
Of	-9.26696
▁rainbow	-9.2678
Do	-9.26818
▁Jen	-9.27145
▁life	-9.27237
▁swimming	-9.2764
▁purple	-9.27943
▁sunshine	-9.27943
▁T	-9.28163
▁milk	-9.28247
▁Come	-9.28428
▁Jenny	-9.2856
▁later	-9.28562
▁instead	-9.28655
▁touched	-9.28671
▁birthday	-9.28961
▁cheese	-9.29168
▁With	-9.29376
▁bottle	-9.30061
▁sunny	-9.30093
▁storm	-9.30196
▁grow	-9.30252
▁bought	-9.303
▁pointed	-9.30313
▁searched	-9.30322
▁cave	-9.30612
▁anyone	-9.30612
▁onto	-9.30832
▁plane	-9.31035
▁bread	-9.31342
▁pot	-9.31846
▁lucky	-9.3208
▁tasty	-9.32289
▁rope	-9.32486
▁watching	-9.32645
▁grab	-9.32713
▁ducks	-9.32724
▁Mittens	-9.32827
▁smiling	-9.33033
▁follow	-9.33037
▁promise	-9.33735
▁crayons	-9.34241
▁sharp	-9.34319
▁plan	-9.3464
▁wide	-9.34744
▁snowman	-9.34753
▁danced	-9.3515
▁button	-9.35194
▁treat	-9.35256
▁interesting	-9.35296
▁person	-9.35623
▁talked	-9.35936
▁bush	-9.36171
▁honey	-9.36502
▁trouble	-9.36572
Hey	-9.36703
▁free	-9.3689
ve	-9.36903
▁hope	-9.3701
▁shop	-9.37187
▁smelled	-9.37316
▁fair	-9.37488
▁write	-9.37516
▁cup	-9.37863
▁lovely	-9.3794
▁giant	-9.38395
▁healthy	-9.38733
▁apples	-9.38956
▁shining	-9.39298
▁road	-9.39566
▁clouds	-9.39825
▁rolled	-9.39898
▁Emily	-9.40444
▁which	-9.40554
▁front	-9.40669
▁fruit	-9.41068
▁spotted	-9.41478
œ	-9.42026
▁pile	-9.4212
▁clever	-9.42643
▁snack	-9.4271
▁Together	-9.42996
▁tasted	-9.43033
▁patient	-9.43098
▁arm	-9.43173
▁couch	-9.43233
▁coat	-9.43303
▁Jim	-9.43473
▁win	-9.43584
▁places	-9.44105
▁whole	-9.44324
▁lay	-9.44584
▁building	-9.44686
▁asleep	-9.44897
▁phone	-9.45018
r	-9.45187
▁knee	-9.45218
▁spent	-9.45258
▁sack	-9.45501
▁Lisa	-9.45505
▁spider	-9.45589
▁coin	-9.4559
▁king	-9.45615
▁ocean	-9.45741
▁goes	-9.4631
▁loves	-9.46432
▁wearing	-9.4656
▁snake	-9.46567
▁pretended	-9.46805
▁dirt	-9.46947
▁wild	-9.46958
▁path	-9.4706
▁screamed	-9.47227
▁Sometimes	-9.47255
▁ladder	-9.47943
▁appeared	-9.48076
▁confused	-9.4819
▁problem	-9.48303
▁gently	-9.48439
▁talking	-9.48546
▁forgive	-9.48929
▁fur	-9.49186
▁furry	-9.49189
▁helpful	-9.49334
▁mud	-9.4943
▁slow	-9.49668
▁spoon	-9.49688
▁answer	-9.50103
▁push	-9.50225
▁color	-9.50358
▁corner	-9.50455
▁faces	-9.50554
▁oven	-9.50574
▁Jake	-9.50706
▁mind	-9.51583
▁picnic	-9.51736
▁last	-9.51853
œI	-9.5193
▁wave	-9.51962
▁woman	-9.51981
▁Peter	-9.5199
▁blew	-9.52627
▁trip	-9.52661
▁matter	-9.5273
▁fixed	-9.52742
▁finish	-9.5292
▁fighting	-9.52958
▁spicy	-9.53147
▁drive	-9.53164
▁waiting	-9.53202
▁taste	-9.53263
er	-9.53266
▁bow	-9.53464
▁throw	-9.53779
▁feet	-9.53801
Come	-9.53822
▁horse	-9.54229
▁eventually	-9.54327
▁teeth	-9.54327
▁zoo	-9.54378
▁cloth	-9.5459
▁embarrassed	-9.54724
▁cookie	-9.54897
▁tomorrow	-9.55121
▁Mummy	-9.55571
▁call	-9.55606
▁smooth	-9.5563
▁smell	-9.5573
▁carry	-9.55755
▁calm	-9.55851
▁happen	-9.55876
▁cloud	-9.55959
▁chocolate	-9.55965
▁Teddy	-9.56197
▁whistle	-9.56283
▁Whil	-9.56729
▁tries	-9.56999
▁tea	-9.57008
▁large	-9.57127
▁kitten	-9.57325
ex	-9.57702
▁wash	-9.57703
▁hiding	-9.57723
▁plant	-9.57748
▁shirt	-9.58166
▁village	-9.58499
▁songs	-9.58846
▁pool	-9.58913
▁letter	-9.58986
▁shy	-9.59035
▁pizza	-9.59466
▁empty	-9.59605
Good	-9.59655
▁creative	-9.59883
▁jungle	-9.60023
▁grew	-9.60163
▁rude	-9.60163
▁tightly	-9.60333
▁cannot	-9.60443
▁spread	-9.60676
▁knocked	-9.60741
▁hid	-9.6093
▁count	-9.61415
▁bugs	-9.61772
▁kiss	-9.62089
▁wore	-9.62139
▁bell	-9.62347
▁puddle	-9.62383
▁band	-9.62424
▁necklace	-9.62523
▁barked	-9.62732
▁robot	-9.62854
▁sail	-9.62862
▁land	-9.62933
▁mountain	-9.6296
▁Everywhere	-9.62999
▁sparkly	-9.63145
▁save	-9.63246
▁cow	-9.63397
▁Johnny	-9.63439
▁part	-9.63482
▁line	-9.63569
▁meet	-9.63674
▁carrot	-9.63834
▁Alice	-9.6387
▁puzzle	-9.63938
▁Please	-9.6431
▁present	-9.64714
▁maybe	-9.64738
▁hidden	-9.64885
▁moon	-9.65178
▁tidy	-9.65573
▁worm	-9.65751
▁forward	-9.65768
▁meadow	-9.65768
▁peaceful	-9.66046
▁hears	-9.66114
▁treats	-9.66499
▁meant	-9.6657
▁prince	-9.66653
▁carrots	-9.6669
Tom	-9.66918
▁machine	-9.6725
▁rocket	-9.67252
▁carried	-9.67409
▁cook	-9.67461
▁missed	-9.67585
▁splash	-9.67903
▁card	-9.6796
▁snacks	-9.68075
▁group	-9.68161
itty	-9.68161
▁string	-9.68163
▁shelf	-9.68616
a	-9.68906
▁ugly	-9.68921
▁jumping	-9.69217
▁Even	-9.69234
▁How	-9.69332
▁seat	-9.69415
▁sticks	-9.69458
n	-9.69584
▁teach	-9.69719
▁leaf	-9.69841
ting	-9.70183
stood	-9.70279
▁O	-9.70354
▁selfish	-9.70456
▁gray	-9.70459
▁neighbor	-9.70633
▁tells	-9.70707
▁yelled	-9.70788
▁stone	-9.7079
▁landed	-9.70819
▁creature	-9.70947
▁knowing	-9.7095
▁Little	-9.70963
▁e	-9.7097
My	-9.71045
▁sharing	-9.7108
▁pig	-9.71104
▁Leo	-9.71403
▁ant	-9.71455
▁legs	-9.71473
▁Be	-9.71508
▁plate	-9.71734
▁standing	-9.71908
▁bath	-9.71926
▁decide	-9.72294
▁breath	-9.72357
▁drew	-9.72493
▁almost	-9.72651
▁number	-9.72688
Stop	-9.72948
▁stand	-9.72957
▁Why	-9.73024
▁frustrated	-9.73127
▁fancy	-9.73127
▁nods	-9.73435
▁disappointed	-9.73447
▁sleepy	-9.73631
▁bus	-9.73909
▁mysterious	-9.74247
▁powerful	-9.74248
▁polite	-9.74392
Please	-9.7455
▁honest	-9.7472
▁protect	-9.74796
▁hours	-9.74957
▁remind	-9.75219
▁hospital	-9.7538
▁block	-9.75391
special	-9.75701
▁ashamed	-9.76033
▁net	-9.76361
▁cries	-9.76361
▁medicine	-9.76526
▁mix	-9.76592
▁these	-9.76661
▁returned	-9.7688
▁plants	-9.77114
▁understood	-9.77212
▁Mark	-9.77362
▁scissors	-9.77518
▁become	-9.77545
▁gate	-9.77685
▁sour	-9.77777
▁expensive	-9.77851
▁leg	-9.78099
▁shore	-9.7819
▁packed	-9.78208
▁scarf	-9.78522
▁sheep	-9.78689
▁Some	-9.78707
▁ring	-9.78765
▁bored	-9.78857
▁dancing	-9.79026
▁passed	-9.79054
▁sandwich	-9.79361
▁vegetables	-9.79519
▁hop	-9.79672
▁taught	-9.79703
▁roll	-9.79855
▁poor	-9.79873
▁finger	-9.7997
▁garage	-9.80044
▁grumpy	-9.80214
▁saved	-9.80262
▁mummy	-9.80729
▁ruined	-9.80741
▁closet	-9.80768
▁taken	-9.8083
▁Don	-9.80905
▁lift	-9.81371
▁comfortable	-9.81417
▁messy	-9.81453
▁crab	-9.82049
▁Susie	-9.82292
▁Today	-9.82329
▁easy	-9.8246
▁bedroom	-9.82463
▁pain	-9.82569
▁generous	-9.82634
▁pleased	-9.82962
▁glue	-9.8312
▁asking	-9.83162
▁yourself	-9.83337
▁spin	-9.83446
▁determined	-9.83513
▁vase	-9.83513
▁working	-9.83799
▁mistake	-9.83819
▁hopping	-9.83868
▁giggled	-9.83888
▁sailed	-9.84102
▁seek	-9.84207
▁boring	-9.84222
▁mail	-9.84352
▁ship	-9.844
▁wagged	-9.84579
▁often	-9.84758
▁kissed	-9.84815
▁feed	-9.8506
▁lock	-9.85068
▁playground	-9.85294
▁sighed	-9.85302
▁thankful	-9.8538
▁nervous	-9.85458
▁true	-9.85654
▁board	-9.85655
▁brush	-9.85738
▁minutes	-9.85757
▁gun	-9.85794
▁chest	-9.85835
▁queen	-9.85835
▁answered	-9.86082
aid	-9.86205
▁No	-9.86366
▁fake	-9.86378
▁butter	-9.86391
▁gathered	-9.86397
▁test	-9.87014
▁tears	-9.87107
▁roar	-9.8717
▁middle	-9.87291
▁waves	-9.87449
ose	-9.88005
▁excitement	-9.88027
▁change	-9.88335
▁skipped	-9.88583
▁Go	-9.88648
▁questions	-9.88671
▁drawing	-9.88903
▁fridge	-9.88954
▁zoom	-9.88981
▁eggs	-9.89133
▁police	-9.8914
▁smelly	-9.89155
▁wrote	-9.89328
▁lit	-9.89328
▁bridge	-9.89697
Sorry	-9.89957
▁discovered	-9.90099
▁weak	-9.90272
Ben	-9.90345
▁wheel	-9.90458
▁drum	-9.90646
▁bathroom	-9.90647
▁match	-9.90744
▁lazy	-9.90836
▁sweetie	-9.91037
▁lose	-9.91053
▁content	-9.91216
▁knife	-9.91216
▁Ella	-9.91221
▁shell	-9.91274
▁fruits	-9.91319
▁wolf	-9.91407
▁cage	-9.91407
▁fluffy	-9.91407
▁days	-9.91639
▁covered	-9.91645
Where	-9.91669
▁pay	-9.91743
▁distance	-9.9179
▁tape	-9.91883
▁respect	-9.91934
▁famous	-9.91982
▁mighty	-9.92016
▁team	-9.92095
▁bake	-9.92125
▁drank	-9.92367
▁wood	-9.92381
▁towel	-9.92381
▁nod	-9.92567
im	-9.92642
▁bone	-9.92771
▁disappeared	-9.92772
▁quit	-9.92789
Are	-9.9286
▁deer	-9.92947
▁lying	-9.92948
▁Eventually	-9.93141
▁caterpillar	-9.93141
▁tent	-9.93288
▁tag	-9.93336
▁unusual	-9.93336
▁eager	-9.93515
▁map	-9.93531
▁calling	-9.93599
▁moving	-9.94118
▁elderly	-9.94319
▁Mrs	-9.94463
▁fill	-9.94616
▁neck	-9.95104
▁eye	-9.95214
▁splashed	-9.95762
▁stones	-9.95872
▁cleaned	-9.95873
▁picks	-9.95918
▁balls	-9.96006
▁End	-9.961
▁live	-9.96291
▁pillow	-9.96347
▁banana	-9.96347
Who	-9.96392
▁check	-9.96815
▁mirror	-9.96904
▁offered	-9.97134
▁egg	-9.97317
▁clown	-9.97361
▁feathers	-9.97456
▁shows	-9.97461
▁Pete	-9.97493
▁kindness	-9.97534
▁juicy	-9.97715
▁father	-9.97715
▁jealous	-9.97918
▁Tweety	-9.98129
▁branches	-9.98129
▁tie	-9.98345
▁balance	-9.98491
▁bottom	-9.98532
▁walks	-9.98542
▁organized	-9.98555
▁brilliant	-9.98737
▁lamp	-9.98737
▁body	-9.98882
▁tough	-9.98943
▁foot	-9.98944
▁rare	-9.98945
▁coins	-9.98995
▁crawled	-9.99382
▁ones	-9.99506
▁Fred	-9.99563
▁crown	-9.99633
▁clear	-9.9966
Help	-9.99898
▁colourful	-9.99978
▁breakfast	-10.0019
▁impressed	-10.0019
▁joke	-10.0022
▁tiger	-10.0026
▁rough	-10.004
▁fine	-10.0043
▁thin	-10.006
▁glass	-10.006
▁bubbles	-10.0061
▁incredible	-10.0081
▁pie	-10.0091
▁once	-10.0099
▁sugar	-10.0102
▁smoke	-10.0123
▁wagon	-10.0145
▁Bella	-10.0145
▁boxes	-10.0149
▁soap	-10.0154
▁dig	-10.0168
▁happening	-10.0194
▁measure	-10.0205
▁flute	-10.0208
▁managed	-10.021
▁bitter	-10.0229
▁realised	-10.023
▁favourite	-10.0251
▁trust	-10.0263
▁adventurous	-10.0272
▁trunk	-10.0272
▁paw	-10.0282
▁wrapped	-10.0294
▁noisy	-10.0315
▁added	-10.034
▁thick	-10.0357
▁dizzy	-10.0358
licked	-10.036
▁choose	-10.038
▁ok	-10.0384
▁foolish	-10.0401
▁market	-10.0401
▁mixed	-10.0407
▁knight	-10.0412
▁word	-10.0413
▁gets	-10.0446
▁jam	-10.0467
▁circles	-10.0475
▁falls	-10.0483
▁safely	-10.0486
▁wand	-10.0488
▁lifted	-10.0494
▁louder	-10.0496
o	-10.0497
Now	-10.0505
▁Bobo	-10.0514
▁cheerful	-10.0531
▁shark	-10.0554
▁dependable	-10.0554
▁pointing	-10.0557
▁belong	-10.0566
▁grandpa	-10.0576
▁step	-10.0589
▁berries	-10.0599
▁dreamed	-10.0609
▁shake	-10.0611
▁borrow	-10.0616
▁grown	-10.0622
▁against	-10.063
▁movie	-10.0633
▁giving	-10.0642
▁ears	-10.0644
▁edge	-10.0678
▁dinosaur	-10.0678
▁search	-10.07
▁circle	-10.0701
▁camera	-10.0709
▁whale	-10.0732
▁Mandy	-10.0732
▁belonged	-10.0736
▁sword	-10.0745
▁flag	-10.0746
▁trucks	-10.0753
▁stronger	-10.0759
▁unique	-10.0777
▁rich	-10.078
▁learning	-10.0783
▁hurts	-10.0794
▁exclaimed	-10.0799
▁yarn	-10.0822
▁slipped	-10.0822
▁dogs	-10.0824
▁Blue	-10.0843
▁Nemo	-10.0867
▁spun	-10.0867
▁loudly	-10.0885
▁happiness	-10.089
se	-10.0896
▁dreams	-10.0916
▁wonder	-10.0919
▁tools	-10.0941
A	-10.0961
▁balloons	-10.0965
▁reliable	-10.0981
▁angel	-10.0997
▁crayon	-10.1021
▁jog	-10.1027
▁My	-10.1032
▁already	-10.105
▁painting	-10.1058
▁thoughtful	-10.107
▁difficult	-10.1073
▁bags	-10.1083
▁cleaning	-10.1094
▁Dave	-10.1096
▁clay	-10.1097
▁useful	-10.1097
▁Bobby	-10.112
▁turtle	-10.1137
▁tunnel	-10.1137
▁birdie	-10.1138
▁loyal	-10.1143
▁pen	-10.1161
▁barn	-10.1167
▁cart	-10.1173
▁needs	-10.1183
▁clap	-10.1184
▁walls	-10.1189
▁using	-10.1199
▁figure	-10.1227
▁hats	-10.1232
▁tank	-10.1237
▁wake	-10.1237
▁normal	-10.1261
▁hero	-10.127
▁laughs	-10.128
▁buttons	-10.1283
▁fierce	-10.1284
▁bushes	-10.1285
▁cover	-10.1299
▁painted	-10.1322
▁extra	-10.1332
▁nosy	-10.1332
▁diamond	-10.1351
▁obedient	-10.1354
▁guitar	-10.1355
▁Ducky	-10.1356
▁sounded	-10.1356
▁dove	-10.1357
▁counted	-10.1363
▁cross	-10.137
▁office	-10.1379
▁parrot	-10.1403
▁bald	-10.1403
▁collect	-10.1418
▁stubborn	-10.1427
▁four	-10.1427
▁hose	-10.1427
Be	-10.1438
▁march	-10.1442
▁boys	-10.1458
▁sight	-10.1458
▁sunflower	-10.1472
▁notice	-10.1473
▁skin	-10.1495
▁rug	-10.15
▁wealthy	-10.15
▁fat	-10.15
▁invited	-10.1501
▁island	-10.1502
Me	-10.1522
▁weird	-10.1524
Here	-10.1525
▁joined	-10.1541
▁yours	-10.1541
▁pirate	-10.1545
▁mole	-10.1548
▁explored	-10.1569
old	-10.157
▁icy	-10.1572
▁independent	-10.1573
l	-10.1585
▁saying	-10.159
▁sauce	-10.1597
▁scream	-10.1611
▁shout	-10.1634
▁bossy	-10.1646
▁swan	-10.1668
▁chicken	-10.1668
▁harder	-10.168
▁smaller	-10.1682
▁kick	-10.1684
▁means	-10.1689
▁built	-10.1695
▁spoiled	-10.1697
▁act	-10.1711
▁numbers	-10.1714
▁bull	-10.1717
▁ancient	-10.1723
▁goat	-10.1727
▁stairs	-10.1734
▁space	-10.1744
▁stumbled	-10.1745
▁To	-10.1755
▁escape	-10.1765
▁fountain	-10.1769
▁rode	-10.1771
▁enormous	-10.1794
▁fragile	-10.1794
▁picking	-10.1797
▁miss	-10.1809
▁practice	-10.1815
▁nurse	-10.1818
▁Grandpa	-10.1821
▁poured	-10.1822
▁bounce	-10.1839
▁gold	-10.1844
Well	-10.1862
▁seeds	-10.1869
▁log	-10.1871
œLet	-10.1903
▁ear	-10.1919
▁power	-10.1919
▁envelope	-10.1919
▁trumpet	-10.1945
▁penny	-10.197
▁stage	-10.197
▁proudly	-10.1976
▁solve	-10.1991
▁chose	-10.1995
▁barber	-10.1995
▁frightened	-10.1995
▁salad	-10.1995
▁roof	-10.1995
▁city	-10.1995
▁cone	-10.1996
▁spray	-10.2012
▁cactus	-10.2021
▁half	-10.2021
▁wrap	-10.2021
▁admired	-10.2024
▁searching	-10.2026
▁tummy	-10.2046
▁delighted	-10.205
▁shape	-10.2069
▁showing	-10.2071
▁dull	-10.2072
▁lizard	-10.2072
▁lights	-10.2092
▁fresh	-10.2096
▁above	-10.2123
▁beak	-10.2123
▁stupid	-10.2123
▁horn	-10.2125
▁shells	-10.2125
▁brothers	-10.2126
▁fingers	-10.2134
▁suggested	-10.2149
▁excitedly	-10.2173
▁regular	-10.2175
▁flashlight	-10.2175
▁shone	-10.2175
▁terrible	-10.2201
▁attic	-10.2201
▁spilled	-10.2202
▁locked	-10.2207
▁pan	-10.2212
▁valuable	-10.2227
▁Ellie	-10.2253
▁tap	-10.2266
▁successful	-10.2277
▁desk	-10.2279
▁Sandy	-10.2279
▁thirsty	-10.2279
▁yet	-10.2279
▁kicked	-10.2284
▁S	-10.2288
▁screen	-10.2305
▁George	-10.2306
▁stove	-10.2358
▁delicate	-10.2384
▁Polly	-10.2385
▁son	-10.2421
▁ending	-10.2431
▁Alex	-10.2436
▁witch	-10.2437
▁stream	-10.2437
▁Paul	-10.2437
▁themselves	-10.2437
▁ow	-10.245
▁brightly	-10.2476
▁rat	-10.248
▁cereal	-10.249
▁original	-10.249
▁dreaming	-10.2504
▁raced	-10.2507
▁careless	-10.2518
▁beetle	-10.2521
▁spaghetti	-10.2544
▁view	-10.2544
▁Lola	-10.2544
▁wiped	-10.2547
▁changed	-10.255
▁Next	-10.2551
▁washed	-10.2563
▁add	-10.2567
▁rushed	-10.2574
▁Andy	-10.259
▁hunter	-10.2598
▁warned	-10.2599
▁Your	-10.2605
▁hay	-10.2625
▁pumpkin	-10.263
▁Joey	-10.2632
ate	-10.2642
▁stickers	-10.2643
▁leaving	-10.2652
▁those	-10.2652
▁clumsy	-10.2652
▁toast	-10.2665
▁biggest	-10.2679
▁popcorn	-10.2679
▁dead	-10.2679
▁scare	-10.268
▁dough	-10.2706
▁kid	-10.2713
▁bees	-10.273
▁serious	-10.2732
▁meal	-10.2747
▁pass	-10.2751
▁corn	-10.276
▁library	-10.2761
▁boats	-10.2777
▁graceful	-10.2787
▁gem	-10.2793
▁finding	-10.2822
▁suit	-10.2822
▁spend	-10.2839
▁uncle	-10.2843
▁early	-10.2845
▁telling	-10.2846
▁imagined	-10.2846
▁peeked	-10.2847
▁jacket	-10.2851
▁feather	-10.2851
▁sink	-10.2871
▁sorts	-10.2875
▁missing	-10.2876
▁hairy	-10.2877
▁zip	-10.2899
▁carpet	-10.2899
▁collar	-10.2899
▁ingredients	-10.29
▁humble	-10.29
▁counting	-10.2908
▁stranger	-10.2911
▁advice	-10.2927
How	-10.2932
▁hoop	-10.2934
▁playful	-10.2943
▁pale	-10.2955
▁create	-10.2979
▁cheap	-10.2982
▁doesn	-10.2988
▁pepper	-10.2991
▁stops	-10.3002
▁forth	-10.3006
▁Ann	-10.3007
▁sudden	-10.3009
▁flexible	-10.3011
▁thunder	-10.3011
▁Toby	-10.3011
▁delight	-10.3024
▁driving	-10.3039
▁guilty	-10.3039
▁gum	-10.3039
▁impressive	-10.3067
▁Tweetie	-10.3067
▁aunt	-10.3068
▁whispered	-10.3069
▁ways	-10.307
▁print	-10.307
▁kinds	-10.3072
▁low	-10.3094
▁jolly	-10.3096
▁thinking	-10.3099
▁carrying	-10.3105
▁sticker	-10.3109
▁allowed	-10.3125
▁twirled	-10.3126
▁nicely	-10.3128
▁shine	-10.3148
▁sparkled	-10.3155
▁handle	-10.317
▁hammer	-10.3181
▁popular	-10.3181
▁hippo	-10.321
▁prize	-10.321
▁umbrella	-10.321
▁knows	-10.3238
▁cards	-10.3239
▁tied	-10.3244
▁rubbed	-10.3267
▁friendship	-10.3296
▁wing	-10.331
▁patch	-10.3325
▁persistent	-10.3325
▁uncomfortable	-10.3325
▁charming	-10.3325
▁metal	-10.3326
p	-10.333
▁cooking	-10.3334
▁dolphin	-10.3337
▁refused	-10.3355
▁shocked	-10.3356
▁anxious	-10.3383
▁ghost	-10.3383
He	-10.3395
There	-10.3402
▁Mike	-10.3412
▁butterflies	-10.3413
▁gasped	-10.3413
▁Look	-10.3418
▁unknown	-10.3442
▁fork	-10.3444
▁lead	-10.3448
▁pants	-10.3472
c	-10.3472
▁trap	-10.3483
▁fear	-10.3484
▁pencil	-10.3484
▁guard	-10.3496
▁celebrate	-10.3497
▁spinning	-10.3501
They	-10.3515
▁chasing	-10.353
▁kangaroo	-10.353
▁nature	-10.353
▁split	-10.353
▁cupboard	-10.356
▁pasta	-10.3561
Ow	-10.3571
▁week	-10.3574
▁led	-10.3575
▁past	-10.3589
▁ordinary	-10.359
▁truth	-10.359
▁shoot	-10.3591
▁houses	-10.3609
▁cop	-10.3614
▁fan	-10.362
▁less	-10.3636
▁cocoa	-10.365
▁wheels	-10.3679
▁chance	-10.368
▁scale	-10.3694
▁spoke	-10.371
▁goose	-10.3717
▁opens	-10.3725
œIt	-10.3726
▁tooth	-10.373
▁skip	-10.374
▁magnet	-10.3755
up	-10.3757
▁slid	-10.3759
▁crane	-10.377
▁bent	-10.3771
▁math	-10.3771
▁growing	-10.3784
▁chew	-10.3791
▁crazy	-10.3801
▁modern	-10.3801
▁harmless	-10.3801
▁snuggled	-10.3802
▁question	-10.3812
▁shoe	-10.3817
▁fold	-10.3821
▁sleeping	-10.3822
▁cap	-10.3824
▁post	-10.3828
▁Maria	-10.3831
▁restaurant	-10.3831
▁fireman	-10.3832
▁Grace	-10.3832
œWhat	-10.3841
▁lemon	-10.3847
▁beauty	-10.3862
▁cord	-10.3862
▁trash	-10.3862
▁intelligent	-10.3892
▁reindeer	-10.3892
▁comb	-10.3918
▁cricket	-10.3923
▁Millie	-10.3924
Go	-10.3925
▁handed	-10.3948
▁sofa	-10.3954
▁disgusting	-10.3954
▁compassionate	-10.3954
▁slides	-10.3969
▁candle	-10.3971
▁drawer	-10.3975
▁travel	-10.3988
▁ahead	-10.4016
▁bracelet	-10.4033
▁engine	-10.4045
▁afternoon	-10.4047
▁distant	-10.4047
▁jelly	-10.4047
▁melon	-10.4047
▁wheat	-10.4047
▁sandwiches	-10.4048
▁Brownie	-10.4048
▁pigeon	-10.4065
▁harsh	-10.4079
▁ignorant	-10.4079
▁clock	-10.408
▁arrow	-10.4097
▁twig	-10.4097
fore	-10.414
▁purse	-10.4141
▁dug	-10.4141
▁sweater	-10.4141
▁seem	-10.4144
▁rules	-10.4162
▁return	-10.4163
▁coffee	-10.4173
▁flour	-10.4173
▁jet	-10.4173
▁shield	-10.4173
▁order	-10.4187
▁impatient	-10.4203
▁shut	-10.4205
▁names	-10.4218
es	-10.423
▁sell	-10.4231
▁restless	-10.4237
▁speed	-10.4263
▁jug	-10.4268
▁trophy	-10.4268
▁mailbox	-10.4268
▁bark	-10.4279
▁gifted	-10.4284
▁crocodile	-10.4287
▁class	-10.43
▁starts	-10.4325
▁hang	-10.4325
▁miserable	-10.4332
▁shrimp	-10.4332
▁bump	-10.4352
▁value	-10.436
▁send	-10.4364
▁pilot	-10.4366
▁computer	-10.4385
▁pretending	-10.4388
▁itself	-10.4396
▁Sophie	-10.4397
▁leopard	-10.4397
▁sadly	-10.4408
▁rose	-10.4417
▁axe	-10.4429
▁hurry	-10.4429
▁further	-10.4429
▁practiced	-10.4434
▁Fin	-10.4447
▁record	-10.4451
▁anywhere	-10.4461
▁goal	-10.447
▁Gi	-10.4492
▁station	-10.4494
▁cooler	-10.45
▁note	-10.4505
▁mark	-10.4506
▁jeep	-10.4527
▁parade	-10.4527
œYes	-10.4542
▁bandage	-10.4549
▁needle	-10.4551
▁Will	-10.4553
▁painter	-10.4564
▁otter	-10.4581
▁dish	-10.4592
▁envious	-10.4592
▁rice	-10.4592
▁stack	-10.4592
▁anyway	-10.4593
ur	-10.4604
▁relax	-10.4616
▁drop	-10.4617
▁reading	-10.4624
▁Buddy	-10.4625
▁scoop	-10.4625
▁silver	-10.4625
▁wishes	-10.4626
▁Bunny	-10.4627
▁helmet	-10.4649
▁creatures	-10.4654
▁crystal	-10.4658
▁forgave	-10.4658
▁ten	-10.4665
œThat	-10.4668
▁cheer	-10.4672
h	-10.4682
▁laser	-10.4682
▁bin	-10.4692
▁stretched	-10.4695
▁blow	-10.471
▁message	-10.4715
▁scooter	-10.4715
▁track	-10.4716
▁nut	-10.4716
▁hung	-10.4724
▁microphone	-10.4725
▁attractive	-10.4725
▁nowhere	-10.4725
▁design	-10.4738
▁Are	-10.4738
▁panda	-10.4749
▁package	-10.4749
▁cushion	-10.4749
▁study	-10.4754
▁eraser	-10.4759
▁helpless	-10.4764
▁brighter	-10.4765
▁troubled	-10.4771
cream	-10.4774
▁tool	-10.4775
▁older	-10.4781
▁alert	-10.4792
▁competitive	-10.4792
▁football	-10.4792
▁pastry	-10.4792
▁jumps	-10.4799
▁giggle	-10.4812
▁sock	-10.4821
▁helps	-10.4847
▁badly	-10.4852
▁soar	-10.4852
▁towers	-10.4879
▁Where	-10.4879
▁pour	-10.4884
▁tricks	-10.4889
▁salt	-10.4892
▁gloomy	-10.4893
▁theater	-10.4893
▁fearful	-10.4893
▁pressed	-10.4897
See	-10.4911
▁visited	-10.4918
▁motorcycle	-10.4927
▁letters	-10.4943
▁wire	-10.4954
▁switch	-10.4956
▁admire	-10.4957
▁bathtub	-10.4961
▁deaf	-10.4961
▁pony	-10.4961
▁size	-10.4989
▁spring	-10.4991
▁courage	-10.4996
▁barrel	-10.4996
▁statue	-10.5023
▁soldier	-10.5023
▁thread	-10.503
▁Tweet	-10.5033
▁treasures	-10.5033
▁squash	-10.5064
▁Here	-10.5064
▁peace	-10.5064
▁may	-10.5064
▁pipe	-10.5065
▁shouts	-10.5067
year	-10.5078
▁neat	-10.5098
▁swinging	-10.5098
▁gorilla	-10.5099
▁raven	-10.5099
▁bounced	-10.5105
▁roared	-10.5108
▁Smith	-10.5134
▁tray	-10.5134
▁hive	-10.5134
▁Annie	-10.5134
▁mop	-10.5137
▁five	-10.5139
▁hook	-10.5157
▁starting	-10.5157
▁pack	-10.5159
Gi	-10.5163
▁modest	-10.5169
▁cows	-10.5177
▁vine	-10.5198
▁peach	-10.5203
▁adorable	-10.5204
▁shopkeeper	-10.5204
▁riding	-10.5205
▁Everything	-10.5206
▁film	-10.5232
▁hockey	-10.5239
▁notebook	-10.5239
▁octopus	-10.5239
▁powder	-10.5239
▁wallet	-10.5239
▁respectful	-10.5239
▁nuts	-10.5248
▁Bill	-10.5273
▁backpack	-10.5274
▁chain	-10.5274
▁shaking	-10.5274
▁Whiskers	-10.5274
▁seal	-10.5299
▁tire	-10.53
▁stuff	-10.53
▁behave	-10.5305
▁haircut	-10.5309
▁steps	-10.5324
▁sort	-10.5331
▁stir	-10.5339
▁jewel	-10.534
▁rescue	-10.5341
▁rub	-10.5341
▁filthy	-10.5345
▁sneak	-10.5379
▁either	-10.538
▁stirred	-10.538
▁tripped	-10.5381
▁pin	-10.5408
▁support	-10.5411
▁decorate	-10.5412
Yay	-10.5415
▁Jerry	-10.5416
▁sunset	-10.5416
▁sandbox	-10.5416
▁nobody	-10.542
▁checked	-10.5424
▁windows	-10.5428
▁boots	-10.5438
▁guess	-10.5442
▁pebble	-10.5448
▁sailor	-10.5448
▁skeleton	-10.5452
▁sent	-10.5452
▁crack	-10.5479
▁giraffe	-10.5484
▁square	-10.5484
▁motor	-10.5488
▁mug	-10.5488
▁zipper	-10.5488
▁ants	-10.5494
▁pushing	-10.5501
▁cane	-10.5506
▁marble	-10.5521
▁rhinoceros	-10.5524
▁lightning	-10.5524
▁James	-10.5525
▁somewhere	-10.5525
▁cooked	-10.5535
▁crawl	-10.5547
▁organize	-10.5556
▁volcano	-10.556
▁porch	-10.556
▁Snowy	-10.556
▁clapping	-10.556
▁rolling	-10.557
▁stared	-10.558
▁point	-10.5583
▁knock	-10.5584
▁dessert	-10.5597
▁leash	-10.5597
▁kayak	-10.5628
▁quick	-10.563
▁available	-10.5633
▁pulls	-10.566
▁glow	-10.566
▁task	-10.5667
▁dishes	-10.567
▁danger	-10.5704
▁triangle	-10.5704
▁case	-10.5706
▁happier	-10.5706
or	-10.5711
▁jokes	-10.5729
osie	-10.5743
▁frowned	-10.5745
▁barking	-10.5749
▁perform	-10.577
▁complete	-10.5775
▁bubble	-10.5779
▁museum	-10.578
▁toilet	-10.578
▁learnt	-10.5784
▁E	-10.5789
▁listening	-10.5807
▁peek	-10.5808
▁van	-10.5817
▁laundry	-10.5818
▁weather	-10.5818
▁climbing	-10.5819
▁colours	-10.583
▁cats	-10.5852
▁lollipop	-10.5854
▁broccoli	-10.5855
▁oil	-10.5855
▁holes	-10.5862
▁hadn	-10.5871
▁paws	-10.5875
▁polish	-10.5883
▁reef	-10.5892
▁Henry	-10.5893
▁iron	-10.593
▁pushes	-10.5931
g	-10.5943
▁closely	-10.5944
▁resist	-10.5958
▁Bear	-10.5967
▁mask	-10.5967
▁yacht	-10.5968
▁blowing	-10.5973
▁tear	-10.5974
Bye	-10.5994
▁heal	-10.5997
▁steal	-10.6001
▁golf	-10.6003
▁napkin	-10.6006
▁club	-10.6006
▁turkey	-10.6006
▁costume	-10.6006
▁pole	-10.6006
▁lively	-10.6009
▁judge	-10.6013
▁marched	-10.6013
en	-10.602
Anna	-10.6033
▁frame	-10.6044
▁dancer	-10.6049
▁stuffed	-10.6049
▁pill	-10.6082
▁bicycle	-10.6082
▁pair	-10.6082
▁trains	-10.6085
▁papers	-10.6095
▁yell	-10.6111
▁beep	-10.6116
▁peanut	-10.6121
▁barks	-10.6134
▁ostrich	-10.6158
▁tube	-10.6161
al	-10.6163
▁softly	-10.6174
▁ended	-10.6189
▁wander	-10.6189
▁stamp	-10.6194
▁mild	-10.6197
▁lid	-10.6197
▁drawings	-10.62
▁chubby	-10.6236
▁piano	-10.6236
▁raining	-10.6236
▁belt	-10.6238
▁monkeys	-10.6249
▁ink	-10.6253
▁imagine	-10.6271
▁elevator	-10.6275
▁mechanic	-10.6275
▁shade	-10.6275
▁basketball	-10.6275
▁mixer	-10.6277
▁glove	-10.6277
▁c	-10.6306
▁seed	-10.6312
▁wag	-10.6313
▁unhappy	-10.6314
▁Lilly	-10.6314
▁counter	-10.6316
▁hoping	-10.6325
▁rod	-10.6351
▁airport	-10.6353
▁cauliflower	-10.6353
▁spirit	-10.6353
▁evening	-10.6385
▁wife	-10.6392
▁rag	-10.6393
▁zebra	-10.6395
▁symbol	-10.6395
▁hut	-10.6397
▁welcomed	-10.6412
▁leaned	-10.6434
est	-10.6436
▁dive	-10.6469
▁thief	-10.6472
▁mama	-10.6472
▁oyster	-10.6475
Because	-10.6511
▁mule	-10.6511
▁baseball	-10.6511
▁grapes	-10.6517
▁drops	-10.6523
▁unlock	-10.6542
▁radish	-10.6551
▁celery	-10.6551
▁shelter	-10.6551
▁apologized	-10.6554
▁vest	-10.6555
▁lions	-10.6559
▁given	-10.6564
▁trick	-10.6591
▁Charlie	-10.6592
▁cherries	-10.6592
▁comet	-10.6598
▁marry	-10.6632
▁veil	-10.6632
▁factory	-10.6632
▁zoomed	-10.6642
▁cups	-10.6663
▁photo	-10.6678
▁comfort	-10.6704
▁B	-10.6711
▁mill	-10.6712
▁Baby	-10.6713
▁energy	-10.6713
▁maze	-10.6713
▁cabinet	-10.6713
▁thanks	-10.6716
▁chimney	-10.6795
▁tuck	-10.6795
▁spell	-10.6796
▁stretch	-10.6826
▁furniture	-10.6836
▁mushroom	-10.6843
▁second	-10.6843
▁bikes	-10.6868
▁speak	-10.6871
▁Harry	-10.6877
▁bulb	-10.6877
▁gym	-10.6877
▁raft	-10.6877
▁staff	-10.6877
▁violin	-10.6877
▁trail	-10.6877
▁paid	-10.6878
▁object	-10.6884
and	-10.689
▁player	-10.6902
▁sheet	-10.6929
▁See	-10.6938
▁enthusiastic	-10.695
▁attention	-10.6961
▁opera	-10.6961
▁slippery	-10.6961
▁soccer	-10.6961
▁wool	-10.6961
▁kitty	-10.6961
▁knot	-10.6968
▁perfectly	-10.6971
▁breaks	-10.6991
▁hopes	-10.6995
▁skirt	-10.7002
▁hedge	-10.7002
▁lie	-10.7006
i	-10.7008
▁page	-10.7011
▁falling	-10.7023
▁married	-10.7044
▁human	-10.7053
▁lime	-10.7053
▁shakes	-10.7062
▁onion	-10.7077
▁repair	-10.7082
▁crib	-10.7087
▁summer	-10.7087
▁sweetheart	-10.7087
▁lives	-10.7119
Tim	-10.712
Timmy	-10.7122
▁armchair	-10.7129
▁cardboard	-10.7129
▁Lee	-10.7129
▁golden	-10.7129
▁display	-10.7167
▁True	-10.7172
▁pine	-10.7174
▁sir	-10.7182
▁shouldn	-10.7183
▁bananas	-10.7204
▁bloom	-10.7205
▁dust	-10.7213
▁short	-10.7223
▁sticky	-10.7224
▁meeting	-10.7228
▁smells	-10.7242
▁Would	-10.7244
▁quarrel	-10.7252
▁weigh	-10.7255
uby	-10.7256
▁tuna	-10.7257
▁belongs	-10.7276
ach	-10.7287
▁Instead	-10.73
▁reward	-10.73
▁scolded	-10.7301
▁Papa	-10.7301
▁avocado	-10.7311
▁deliver	-10.7333
▁twist	-10.7333
▁load	-10.7339
▁swung	-10.7344
▁shower	-10.7386
▁Danny	-10.7387
▁straight	-10.7387
▁explain	-10.7388
▁chickens	-10.739
▁burned	-10.7392
▁soil	-10.7413
▁frogs	-10.7428
▁fisherman	-10.7431
▁prevent	-10.7431
▁veterinarian	-10.7431
▁file	-10.7431
▁flies	-10.7431
▁puddles	-10.7443
▁pray	-10.7464
▁Brown	-10.7474
œYou	-10.7475
▁between	-10.7475
▁ceiling	-10.7475
▁imagination	-10.7475
▁journal	-10.7475
▁created	-10.7481
▁petals	-10.7481
▁discover	-10.7508
▁tomato	-10.7518
▁medal	-10.7519
▁thermometer	-10.7519
▁classroom	-10.7519
▁glowing	-10.7524
▁shoulder	-10.7546
▁C	-10.7556
▁Tony	-10.7563
▁kingdom	-10.7563
▁memories	-10.7563
▁plastic	-10.7563
▁pirates	-10.7568
▁Bun	-10.7573
▁cabin	-10.7607
▁cell	-10.7607
▁burn	-10.7613
▁accept	-10.7642
▁gather	-10.7643
▁jellyfish	-10.7652
▁radio	-10.7652
▁slept	-10.7652
▁earth	-10.7652
▁folder	-10.7654
▁ignored	-10.7656
Your	-10.7684
▁fishing	-10.7686
▁forgotten	-10.7697
▁celebrated	-10.7703
▁flame	-10.7711
▁fields	-10.7723
▁pup	-10.7742
▁telephone	-10.7742
▁mistakes	-10.7754
▁pinch	-10.7778
▁oak	-10.7787
▁accepted	-10.7792
▁throwing	-10.7803
▁makeup	-10.7811
▁alligator	-10.7833
▁infant	-10.7833
▁rubber	-10.7833
▁steam	-10.7833
▁strength	-10.7833
▁taxi	-10.7833
▁vendor	-10.7833
▁country	-10.7833
▁throws	-10.7867
▁vet	-10.7879
▁unpack	-10.7915
▁serve	-10.792
▁tub	-10.7922
▁ambulance	-10.7924
▁swamp	-10.7926
▁presents	-10.7932
in	-10.7933
▁shouting	-10.7933
▁magazine	-10.794
▁cube	-10.7941
▁seeing	-10.7968
▁worth	-10.797
▁writing	-10.797
▁alive	-10.797
▁baking	-10.797
▁wardrobe	-10.7971
▁attach	-10.8012
▁squeeze	-10.8012
▁Tina	-10.8016
▁creek	-10.8016
▁palace	-10.8016
▁winter	-10.8016
▁lemonade	-10.8016
achel	-10.8017
▁points	-10.802
▁acorn	-10.8034
▁diary	-10.8063
▁hanging	-10.807
▁planet	-10.8075
▁boot	-10.8096
Max	-10.8107
▁Steve	-10.8109
▁strawberry	-10.811
▁television	-10.811
▁Buzz	-10.811
▁hall	-10.8111
ness	-10.8118
▁parent	-10.8128
▁potato	-10.8156
▁stable	-10.8157
▁fog	-10.8157
▁greedy	-10.8157
▁exercise	-10.8175
▁prepare	-10.82
▁flapped	-10.8204
▁feelings	-10.8205
Di	-10.8214
▁helper	-10.8233
it	-10.8239
▁poke	-10.8247
▁introduce	-10.825
▁Clara	-10.8251
▁apron	-10.8251
▁knob	-10.8251
▁mystery	-10.8251
▁sprayed	-10.826
▁sailing	-10.8267
▁argue	-10.8295
▁helicopter	-10.8299
▁offer	-10.8326
▁harbor	-10.8347
▁mattress	-10.8347
▁First	-10.835
atie	-10.8352
▁below	-10.8353
▁minute	-10.8367
▁gas	-10.8375
▁surrender	-10.8385
▁experience	-10.8391
▁grill	-10.8395
▁sunglasses	-10.8395
▁waving	-10.8395
▁eagerly	-10.8399
▁However	-10.8399
▁Help	-10.8414
▁microscope	-10.8443
▁dressed	-10.8464
▁known	-10.847
▁crash	-10.8482
▁leak	-10.8487
▁cherry	-10.8492
▁popped	-10.8492
ups	-10.8503
▁language	-10.8513
▁pear	-10.8527
▁disappear	-10.8531
▁Pat	-10.8535
▁apart	-10.854
ar	-10.8541
▁fallen	-10.8542
▁wine	-10.855
▁wipe	-10.8559
▁chalk	-10.8589
▁faucet	-10.8589
▁berry	-10.8589
▁follows	-10.8594
ver	-10.8605
b	-10.8622
▁separate	-10.8635
▁easily	-10.8639
▁Mimi	-10.8639
▁blackboard	-10.8639
▁breeze	-10.8639
▁God	-10.865
▁sparkle	-10.8658
▁Abigail	-10.8689
▁quietly	-10.8698
▁shadow	-10.8712
▁squirrels	-10.8725
▁lend	-10.8733
▁improve	-10.8734
▁spear	-10.8738
▁entered	-10.8742
▁taller	-10.8745
▁crossed	-10.8748
▁headed	-10.8764
▁reverse	-10.8785
▁Maggie	-10.8788
▁automobile	-10.8788
▁earlier	-10.8788
▁vacation	-10.8788
▁kisses	-10.8789
▁poked	-10.8792
▁signs	-10.8793
▁relaxed	-10.8795
an	-10.8809
▁waffle	-10.8813
▁meat	-10.8831
▁rake	-10.8834
▁raise	-10.8837
▁alarm	-10.8838
▁fought	-10.8838
▁igloo	-10.8838
▁musician	-10.8838
▁stadium	-10.8838
▁crawling	-10.8845
▁shovel	-10.8863
▁olive	-10.8863
▁melt	-10.8879
▁shrink	-10.8884
▁church	-10.8889
▁investigate	-10.889
▁sniffed	-10.889
▁dresses	-10.8893
▁heads	-10.8934
Ha	-10.8934
▁trade	-10.8935
▁luck	-10.8938
▁cliff	-10.8939
▁spade	-10.8939
▁fastest	-10.8945
▁press	-10.8949
▁dear	-10.8965
ie	-10.8975
▁holiday	-10.899
▁cared	-10.9006
▁mint	-10.9017
▁mist	-10.904
Wait	-10.9041
▁buckle	-10.9042
▁exam	-10.9042
▁lawyer	-10.9042
▁oasis	-10.9042
▁Milly	-10.9042
▁lotion	-10.9044
▁vroom	-10.9051
▁Who	-10.9066
▁skills	-10.9069
▁happens	-10.9075
▁yogurt	-10.9093
▁cable	-10.9093
▁sizes	-10.9104
▁caring	-10.9106
▁Ted	-10.9117
▁poem	-10.9121
▁curtain	-10.9121
w	-10.9121
▁spoil	-10.914
▁Luckily	-10.9145
▁aeroplane	-10.9145
▁amazement	-10.9145
▁anchor	-10.9145
▁bouncing	-10.9145
▁destination	-10.9145
▁lawn	-10.9146
▁scattered	-10.9149
▁moves	-10.9154
k	-10.9162
u	-10.9178
▁Spike	-10.9197
▁supply	-10.9197
▁waste	-10.9199
▁chairs	-10.9208
▁splashing	-10.9213
▁vehicle	-10.9225
▁bears	-10.924
▁dishwasher	-10.925
▁safety	-10.9253
▁trusted	-10.9261
▁examine	-10.9298
▁ignore	-10.9299
▁mailman	-10.9302
▁yawned	-10.9305
▁collected	-10.9312
▁puzzles	-10.9313
▁isn	-10.9323
▁muffin	-10.9332
▁sneeze	-10.9351
▁Freddy	-10.9355
▁shrugged	-10.9355
▁blueberries	-10.9355
▁saving	-10.9355
▁floated	-10.9359
▁shooting	-10.9364
▁choice	-10.9385
▁M	-10.9389
▁doors	-10.9407
▁rise	-10.9408
▁spending	-10.9417
v	-10.9432
▁ribbon	-10.9439
▁reache	-10.944
▁tug	-10.9462
▁poppy	-10.9462
▁quiz	-10.9463
th	-10.9488
▁passport	-10.9493
▁accident	-10.9493
▁pattern	-10.9494
▁horses	-10.9501
▁remove	-10.9512
▁bookcase	-10.9516
▁sparkling	-10.9516
▁Miss	-10.9516
▁pit	-10.9519
▁agree	-10.9544
▁novel	-10.9547
▁penguin	-10.9548
▁nation	-10.957
▁structure	-10.957
▁laughter	-10.957
▁squeezed	-10.9574
▁licks	-10.9587
▁following	-10.9593
▁video	-10.9602
S	-10.9615
▁buried	-10.9624
▁razor	-10.9624
▁praised	-10.9625
▁eaten	-10.9633
▁hurting	-10.9646
▁candles	-10.9648
▁flea	-10.9657
▁rot	-10.9678
▁Penny	-10.9679
▁drain	-10.9679
Yuck	-10.9679
▁spots	-10.9714
▁oranges	-10.9729
▁chess	-10.9734
▁fuel	-10.9734
▁tongue	-10.9734
▁beans	-10.9753
▁hearts	-10.9754
ray	-10.9761
▁tornado	-10.9789
▁blinked	-10.9791
▁settled	-10.9792
▁worms	-10.9795
▁loop	-10.9824
Sam	-10.9839
▁understanding	-10.984
▁finds	-10.9843
▁law	-10.9844
▁appreciate	-10.9844
▁captain	-10.9844
▁snapped	-10.9844
▁battery	-10.9845
▁destroyed	-10.9849
▁ringing	-10.986
▁lab	-10.9862
▁washing	-10.9864
▁l	-10.9893
▁manage	-10.9896
▁since	-10.9897
▁dried	-10.99
▁tide	-10.99
▁shot	-10.99
▁mall	-10.9901
▁growled	-10.9903
▁setting	-10.9907
▁sandcastle	-10.9937
▁plates	-10.9946
▁tutor	-10.9956
▁palm	-10.9957
▁bean	-10.9962
▁label	-10.9993
▁destroy	-11.0008
▁invite	-11.0009
▁fireplace	-11.0013
▁keeping	-11.0016
▁watches	-11.0018
▁wandered	-11.002
▁colour	-11.0046
Ouch	-11.0057
▁myself	-11.007
▁surprises	-11.0075
▁lick	-11.0097
oo	-11.0122
▁Everyday	-11.0127
▁chamber	-11.0127
▁dictionary	-11.0127
▁Joy	-11.0128
▁art	-11.0132
▁melted	-11.0132
▁score	-11.0161
▁cheek	-11.0166
▁root	-11.0168
▁bravely	-11.0174
▁strawberries	-11.0184
▁yoga	-11.0184
▁yucky	-11.0184
▁jewelry	-11.0184
▁freezer	-11.0185
And	-11.0193
▁thumb	-11.0223
▁castles	-11.0228
▁oats	-11.0233
▁festival	-11.0242
▁stomach	-11.0242
▁whip	-11.0242
▁claws	-11.0252
▁breathe	-11.0253
▁airplane	-11.0282
▁luggage	-11.03
▁port	-11.03
▁pride	-11.03
at	-11.0301
le	-11.0317
▁spit	-11.032
▁sip	-11.0346
▁Chloe	-11.0359
▁someday	-11.0359
▁vanished	-11.0361
▁floating	-11.0363
▁Hav	-11.0375
▁war	-11.0381
▁pages	-11.0406
▁success	-11.0417
▁beamed	-11.0418
▁sings	-11.0426
▁toes	-11.0437
▁discuss	-11.0472
ied	-11.0473
▁struggling	-11.0477
▁usual	-11.0477
▁provide	-11.0479
▁beef	-11.0484
▁blankets	-11.0493
▁coats	-11.05
▁believed	-11.0509
▁nail	-11.052
▁batter	-11.0535
▁blueberry	-11.0536
▁junk	-11.0536
▁sunrise	-11.0536
▁temple	-11.0536
▁burning	-11.0542
▁gear	-11.058
▁enter	-11.0587
▁ruin	-11.0591
▁mosquito	-11.0596
emember	-11.0596
▁jogging	-11.0596
▁valley	-11.0596
▁whistling	-11.0596
emy	-11.0597
▁chores	-11.0598
▁cuddled	-11.0599
▁Or	-11.0635
▁remain	-11.0652
▁observe	-11.0652
▁superhero	-11.0656
nfortunately	-11.0656
▁immediately	-11.0656
▁lumber	-11.0656
▁missile	-11.0656
▁permission	-11.0656
▁mustache	-11.0656
▁Coco	-11.0657
▁bathe	-11.0662
▁ranch	-11.067
▁teaching	-11.0675
▁jazz	-11.0717
▁lily	-11.0717
▁hills	-11.0744
▁weeks	-11.075
▁gifts	-11.077
▁tease	-11.0776
▁steak	-11.0778
▁patiently	-11.0786
seek	-11.079
▁planes	-11.0794
▁pulling	-11.0807
▁spark	-11.0822
▁ticket	-11.0825
▁pastel	-11.0825
▁calendar	-11.0839
▁ha	-11.0883
▁stitch	-11.0896
▁future	-11.0901
▁People	-11.0903
▁paused	-11.0903
▁warmth	-11.0904
▁Anne	-11.0906
▁marbles	-11.0907
▁collecting	-11.0913
▁rabbits	-11.0931
▁warning	-11.0952
▁scratch	-11.0952
▁peanuts	-11.0961
▁difference	-11.0963
▁coal	-11.0963
▁approached	-11.0964
▁thrilled	-11.0964
▁hotel	-11.0964
▁prayed	-11.097
▁calls	-11.1004
on	-11.1004
▁un	-11.1006
▁receive	-11.1022
▁alright	-11.1026
▁daisy	-11.1026
▁equipment	-11.1026
▁perfume	-11.1026
▁gust	-11.1026
▁chirping	-11.1028
▁encouraged	-11.1028
▁panic	-11.1063
▁delay	-11.1084
▁appear	-11.1084
▁begged	-11.1089
▁earthquake	-11.1089
▁shampoo	-11.1089
▁skull	-11.1089
▁suppose	-11.1089
▁skipping	-11.1089
▁Beth	-11.1089
▁insisted	-11.109
Sara	-11.1102
▁elephants	-11.1114
ce	-11.1116
▁whisper	-11.113
▁cartoon	-11.1139
▁restore	-11.1148
▁none	-11.1154
eady	-11.1158
▁twisted	-11.1159
▁moments	-11.1178
▁tip	-11.1203
▁urge	-11.1211
▁unite	-11.1211
▁doggy	-11.1216
▁meowed	-11.1218
▁received	-11.122
▁solved	-11.1226
▁socks	-11.1231
▁bother	-11.1235
▁crow	-11.1275
▁weep	-11.1275
▁lecture	-11.128
▁license	-11.128
▁copper	-11.128
▁revealed	-11.1282
▁soldiers	-11.1292
▁heat	-11.131
▁hate	-11.1324
▁pistol	-11.1344
▁bricks	-11.1349
▁deeper	-11.1351
▁jewels	-11.1353
▁ordered	-11.1354
▁comfy	-11.1409
▁refreshed	-11.1409
▁torn	-11.1409
▁matches	-11.141
▁recognized	-11.1413
▁hanger	-11.1414
▁screw	-11.1464
▁answers	-11.1473
▁digging	-11.1474
▁remained	-11.1479
▁Liz	-11.148
▁patterns	-11.1501
▁complain	-11.1531
▁apologize	-11.1536
▁blood	-11.154
▁upstairs	-11.154
▁jail	-11.154
▁drinking	-11.1572
▁uniform	-11.1596
▁rush	-11.1605
▁racing	-11.1606
▁grinned	-11.1606
▁discovery	-11.1608
▁chirped	-11.1609
▁simple	-11.1614
▁snap	-11.1663
▁decision	-11.1663
▁shiver	-11.1664
▁grape	-11.1664
▁circus	-11.1673
▁measured	-11.1686
▁float	-11.172
▁bury	-11.1735
▁replace	-11.1736
▁sunlight	-11.1741
▁strip	-11.1741
ch	-11.1741
▁F	-11.1755
▁parts	-11.1756
▁planted	-11.1763
œNo	-11.1766
▁scatter	-11.1803
ctually	-11.1808
▁Bubbles	-11.1808
▁Poppy	-11.1808
▁price	-11.1808
▁refrigerator	-11.1808
▁velvet	-11.1808
Mmm	-11.1808
▁jogged	-11.1808
▁buzzing	-11.1809
▁crashed	-11.1814
▁twirl	-11.1866
▁weapon	-11.1867
▁awe	-11.1871
▁settle	-11.1872
▁Nutty	-11.1876
▁glowed	-11.1884
▁clearing	-11.1891
▁rooms	-11.1893
▁slip	-11.1937
▁herb	-11.1938
▁continue	-11.194
▁model	-11.1944
▁university	-11.1944
▁worse	-11.1944
▁newspaper	-11.1944
▁easier	-11.1944
▁selling	-11.1954
▁ideas	-11.1984
▁Jo	-11.1987
▁yield	-11.201
▁bathrobe	-11.2013
▁bookshelf	-11.2013
▁history	-11.2013
▁menu	-11.2014
▁marching	-11.2027
Welcome	-11.2031
▁bites	-11.2038
œThank	-11.2048
▁rested	-11.2071
▁gain	-11.2078
▁Suzy	-11.2083
▁ashtray	-11.2083
▁prepared	-11.2089
▁ash	-11.2092
▁cartoons	-11.2096
▁decorations	-11.2097
▁turning	-11.2126
▁pigs	-11.2142
body	-11.2145
▁brick	-11.2147
▁camp	-11.2148
▁May	-11.2152
▁company	-11.2153
▁flood	-11.2153
▁style	-11.2153
▁fed	-11.2153
▁beside	-11.2158
▁sparkles	-11.219
▁dare	-11.222
▁Floppy	-11.2223
▁agreement	-11.2223
▁poison	-11.2224
▁Lucky	-11.2225
oe	-11.2272
▁slice	-11.2289
▁massage	-11.2294
▁collection	-11.2294
▁Luna	-11.2296
▁hated	-11.2301
▁writes	-11.235
▁bang	-11.236
▁mitten	-11.2361
▁By	-11.2365
▁admiring	-11.2365
▁possible	-11.2365
▁crunchy	-11.2366
▁soared	-11.2375
▁chewed	-11.2376
eally	-11.2412
▁repeat	-11.2423
▁succeed	-11.2428
▁cobweb	-11.2433
▁tomatoes	-11.2438
▁examined	-11.2443
▁attached	-11.2445
▁lands	-11.2456
looking	-11.2461
Would	-11.2463
▁watered	-11.2493
▁Moral	-11.251
▁freeze	-11.2513
uck	-11.2519
Dad	-11.2533
▁sprinkles	-11.2552
un	-11.256
▁sore	-11.2564
▁permit	-11.2583
▁Chirpy	-11.2583
▁neighborhood	-11.2583
▁practicing	-11.2583
▁spoons	-11.2583
▁curled	-11.2584
Thanks	-11.2642
▁fixing	-11.2648
▁grey	-11.2656
▁surrounded	-11.2656
▁wizard	-11.2656
▁grocery	-11.2656
▁trapped	-11.2658
▁Hoppy	-11.2659
▁reminder	-11.2661
▁weren	-11.2662
▁realize	-11.2727
▁brain	-11.2728
▁insect	-11.2729
▁peer	-11.2731
▁problems	-11.2737
▁cutting	-11.2737
▁onwards	-11.2761
lways	-11.2773
▁strangers	-11.2784
▁request	-11.28
▁lip	-11.2804
▁Betsy	-11.2805
▁safari	-11.2805
▁Josh	-11.2805
▁Tilly	-11.2805
▁weight	-11.2807
▁pitch	-11.2812
▁tracks	-11.2825
mething	-11.2828
ped	-11.2836
▁dur	-11.2873
▁gloves	-11.2876
▁sausage	-11.288
▁firework	-11.288
▁Julie	-11.288
▁Sunday	-11.288
▁sidewalk	-11.288
▁subway	-11.288
▁waist	-11.288
▁villagers	-11.288
▁perched	-11.2881
▁pinched	-11.2888
▁escaped	-11.2893
▁downstairs	-11.2956
▁wisdom	-11.2956
▁zero	-11.2956
▁rained	-11.2957
▁argued	-11.2962
▁wanting	-11.2969
▁cakes	-11.2982
▁bowed	-11.2983
▁shed	-11.2999
▁remembers	-11.3018
▁D	-11.3027
▁Jenna	-11.3032
▁sting	-11.3036
▁guns	-11.305
▁whistled	-11.3056
▁event	-11.3109
▁costumes	-11.3109
▁firemen	-11.3109
▁memory	-11.3109
▁gotten	-11.3109
▁zipped	-11.311
▁mister	-11.311
▁mineral	-11.311
raised	-11.3111
▁six	-11.3111
▁x	-11.3117
▁sliding	-11.3121
▁itch	-11.314
▁visiting	-11.3165
▁area	-11.3171
▁surf	-11.3178
▁muddy	-11.3187
▁steel	-11.3187
▁petted	-11.3187
▁bleeding	-11.3188
▁pancakes	-11.3195
▁news	-11.3198
▁seats	-11.3262
▁Tiny	-11.3265
▁bunnies	-11.3265
▁eagle	-11.3265
▁measuring	-11.3265
▁Sadly	-11.3265
▁accidents	-11.3265
▁anytime	-11.3266
▁prune	-11.3268
▁weighed	-11.3273
▁folded	-11.3277
▁Di	-11.3286
▁twigs	-11.3297
▁pearl	-11.3321
▁monsters	-11.3331
▁Adam	-11.3344
▁Cindy	-11.3344
▁hurricane	-11.3344
▁pears	-11.3387
▁Big	-11.3422
▁lamb	-11.3423
▁navy	-11.3423
▁grandmother	-11.3424
▁shopping	-11.3424
▁ours	-11.3425
▁neighbour	-11.3427
▁Dan	-11.3429
▁sold	-11.3429
▁scratched	-11.3429
▁Someone	-11.3432
▁brushed	-11.3444
▁buildings	-11.3448
▁dinosaurs	-11.3455
ob	-11.3459
▁mouths	-11.3472
▁recognize	-11.3499
▁fashion	-11.3503
▁billboard	-11.3503
▁invitation	-11.3506
▁guessed	-11.3513
ry	-11.354
▁bones	-11.3576
▁blouse	-11.3584
▁leather	-11.3584
▁rail	-11.3584
▁ripped	-11.3584
▁cuddle	-11.3584
▁ornament	-11.3589
▁comforted	-11.3593
▁drinks	-11.3656
▁Sunny	-11.3665
▁birdcage	-11.3665
▁fascinated	-11.3665
▁happiest	-11.3665
▁overjoyed	-11.3665
▁Jessie	-11.3665
▁disagreed	-11.3668
▁mountains	-11.3686
▁paints	-11.3711
▁neighbors	-11.3737
▁stole	-11.3746
▁operation	-11.3747
▁rhythm	-11.3747
▁underground	-11.3747
▁struck	-11.3747
▁vegetable	-11.3754
▁catching	-11.3764
▁zooming	-11.3768
▁wonders	-11.3773
▁markers	-11.3804
▁pillows	-11.381
▁Ollie	-11.383
▁brand	-11.383
▁prettiest	-11.383
▁Jamie	-11.383
▁snail	-11.383
▁sneezed	-11.3836
▁rang	-11.3837
She	-11.3864
▁waffles	-11.3872
Or	-11.3873
▁kindly	-11.3904
▁punish	-11.3908
▁everyday	-11.3913
▁hurried	-11.3913
▁oxygen	-11.3913
▁teaspoon	-11.3913
▁drift	-11.3913
▁wooden	-11.3914
▁disturbed	-11.3917
▁succeeded	-11.3918
▁tune	-11.392
▁sport	-11.392
▁rides	-11.3958
▁challenge	-11.3993
out	-11.3993
▁studied	-11.3997
rept	-11.3997
▁tugged	-11.3997
ake	-11.3998
▁Sharing	-11.4002
▁image	-11.4005
▁For	-11.401
▁keeper	-11.404
▁yawn	-11.4072
ncle	-11.4082
▁Claire	-11.4082
▁struggled	-11.4086
▁Sure	-11.4091
œLook	-11.4104
▁bottles	-11.4108
▁items	-11.4113
over	-11.4141
▁tremble	-11.4163
▁struggle	-11.4163
▁cones	-11.4165
▁spaceship	-11.4167
▁underneath	-11.4167
▁planned	-11.4167
▁lips	-11.4168
▁bridges	-11.417
▁included	-11.4173
▁served	-11.4175
▁bloomed	-11.4177
▁officer	-11.4179
œDon	-11.4185
▁P	-11.4196
▁men	-11.4203
▁muffins	-11.4204
▁Man	-11.4217
▁acorns	-11.4221
ers	-11.4231
▁bye	-11.4231
▁obey	-11.4249
▁G	-11.4249
▁pets	-11.4252
▁David	-11.4253
▁competition	-11.4253
▁responsible	-11.4253
▁suitcase	-11.4253
▁loving	-11.4253
▁Lizzy	-11.4253
▁mentioned	-11.4256
▁creation	-11.4264
▁soaring	-11.4265
▁brings	-11.4277
œWe	-11.4277
▁secrets	-11.429
B	-11.4302
▁Santa	-11.434
▁landscape	-11.434
▁neighbourhood	-11.434
▁traffic	-11.434
▁wagging	-11.4341
▁row	-11.4341
▁Hop	-11.4346
▁completed	-11.4351
▁sorting	-11.4352
▁tickets	-11.4361
▁Cat	-11.4372
ic	-11.4374
▁beat	-11.4379
▁tastes	-11.441
ion	-11.4415
▁tonight	-11.4428
▁potatoes	-11.4429
▁shivered	-11.4434
▁scurr	-11.4437
use	-11.4492
ip	-11.4504
▁instructions	-11.4517
▁curiosity	-11.4517
▁works	-11.452
▁beard	-11.452
▁died	-11.452
▁gained	-11.4522
▁screams	-11.4525
▁L	-11.4526
▁piles	-11.4559
▁olives	-11.4561
▁Nina	-11.4606
▁precious	-11.4606
▁universe	-11.4606
▁peck	-11.4606
▁Al	-11.4609
▁decorated	-11.4616
▁sights	-11.4619
▁lines	-11.4627
▁cape	-11.4628
il	-11.4666
▁suffer	-11.4686
▁boss	-11.4695
▁fetch	-11.4696
▁steep	-11.4696
▁exactly	-11.4696
▁H	-11.4702
ty	-11.4706
▁oat	-11.4711
less	-11.4717
Will	-11.4736
▁nicer	-11.4745
▁wreck	-11.4782
▁contain	-11.4782
▁prunes	-11.4784
▁control	-11.4787
▁solution	-11.4787
▁budge	-11.4787
▁frown	-11.4792
▁protected	-11.4813
▁doctors	-11.4831
▁shadows	-11.4835
▁Slowly	-11.4879
▁beneath	-11.4879
▁frosting	-11.4879
▁slapped	-11.4879
▁properly	-11.4879
▁printer	-11.4881
▁ago	-11.4893
▁paintings	-11.4904
▁parked	-11.4905
▁sadness	-11.4906
▁rocked	-11.4906
▁loose	-11.4941
▁bar	-11.4949
▁waits	-11.4964
▁bank	-11.4971
▁contest	-11.4971
▁knel	-11.4971
▁librarian	-11.4971
▁rubbing	-11.4971
▁silence	-11.4971
▁season	-11.4971
▁owned	-11.4971
▁eight	-11.4971
▁released	-11.4975
▁boom	-11.4977
▁yelling	-11.4982
▁stealing	-11.4983
▁pouring	-11.4984
▁flap	-11.4987
▁movies	-11.501
▁babies	-11.5065
▁urged	-11.5071
▁twirling	-11.5071
▁gathering	-11.5074
eep	-11.5081
▁web	-11.5087
▁mixing	-11.5091
▁penguins	-11.5102
▁shoulders	-11.5137
▁Nick	-11.5159
▁exit	-11.5159
▁Dolly	-11.5159
▁powers	-11.5159
▁purred	-11.516
Ok	-11.5163
▁machines	-11.5163
▁lemons	-11.5204
able	-11.5213
▁winner	-11.5254
▁reluctantly	-11.5254
▁barely	-11.5254
▁frozen	-11.5255
▁Afterwards	-11.5263
▁unlocked	-11.5265
▁crackers	-11.5268
▁sorted	-11.5272
ack	-11.5273
T	-11.5284
Yum	-11.53
though	-11.5301
▁soak	-11.5341
▁shock	-11.5346
▁mice	-11.535
▁fireworks	-11.5351
▁ranger	-11.5351
▁punished	-11.5356
▁dragg	-11.5357
ful	-11.5358
▁stripes	-11.5362
▁regret	-11.5368
▁muscles	-11.54
▁W	-11.5434
ies	-11.5438
▁disturb	-11.5438
um	-11.544
▁Frank	-11.5447
▁Thomas	-11.5447
▁bouncy	-11.5447
▁repeated	-11.5454
▁waiter	-11.5472
thank	-11.5496
One	-11.5504
▁quack	-11.5536
▁paddle	-11.5541
▁Day	-11.5546
▁winning	-11.5546
▁mission	-11.5546
▁emergency	-11.5546
▁expected	-11.5549
oom	-11.5559
▁printed	-11.5562
▁peel	-11.5562
▁figured	-11.5563
▁pastels	-11.5569
▁roaring	-11.5571
away	-11.5595
▁breaking	-11.5605
ay	-11.5611
C	-11.5618
▁hunt	-11.5638
▁Emmy	-11.5644
▁Tuesday	-11.5644
▁throat	-11.5644
▁policeman	-11.5645
▁brushes	-11.5646
▁becoming	-11.5647
▁voices	-11.5654
▁lied	-11.5654
▁dolphins	-11.5705
▁ripe	-11.573
▁bend	-11.574
▁increase	-11.574
▁entire	-11.5744
▁slimy	-11.5744
▁stirring	-11.5745
▁peaches	-11.5745
▁camping	-11.5751
▁discovering	-11.5755
▁pedal	-11.5759
▁beds	-11.5764
▁screaming	-11.5764
▁wondering	-11.5765
▁Like	-11.5768
▁nightmare	-11.5768
Happy	-11.5796
▁keys	-11.5816
▁encourage	-11.5841
▁pop	-11.5845
▁seesaw	-11.5847
▁leader	-11.5849
▁applauded	-11.585
▁stretching	-11.5857
▁Stop	-11.5859
▁p	-11.5862
▁acted	-11.5865
▁west	-11.5885
▁guys	-11.589
boo	-11.5895
▁staring	-11.5897
Spot	-11.5898
▁planets	-11.5912
op	-11.5916
▁include	-11.5947
▁balancing	-11.5948
▁unexpected	-11.5948
▁countryside	-11.5948
▁homework	-11.5951
▁spraying	-11.5966
▁effort	-11.5974
▁spiders	-11.5974
Daddy	-11.6001
Goodbye	-11.6006
▁draws	-11.6027
▁release	-11.6047
▁Matt	-11.605
▁confident	-11.6051
▁giggling	-11.6051
▁goodnight	-11.6051
▁trembling	-11.6051
▁worries	-11.6051
▁strike	-11.6051
▁outdoors	-11.6056
▁highest	-11.6059
▁An	-11.6066
▁claps	-11.6075
▁however	-11.6078
Mia	-11.6105
▁heel	-11.6129
▁warn	-11.6147
▁entrance	-11.6155
▁fabric	-11.6155
▁ladybug	-11.6155
▁marriage	-11.6155
▁ourselves	-11.6155
▁broom	-11.6155
▁teasing	-11.6155
▁demanded	-11.6158
ping	-11.6161
▁touching	-11.6172
▁passing	-11.6173
▁direction	-11.6184
ow	-11.619
ain	-11.6211
▁pies	-11.6218
▁roads	-11.6223
▁sighs	-11.6228
M	-11.6237
▁vanish	-11.6256
ee	-11.6258
▁sisters	-11.626
▁greet	-11.626
▁luxury	-11.626
▁plenty	-11.626
▁supplies	-11.626
▁Jessica	-11.626
▁surface	-11.626
▁mittens	-11.6266
▁shivering	-11.6267
ive	-11.6268
▁lean	-11.6279
▁matching	-11.6286
▁result	-11.629
▁pat	-11.6319
▁recommend	-11.6362
abbit	-11.6366
▁Linda	-11.6366
▁Mira	-11.6366
▁satisfied	-11.6366
▁wedding	-11.6366
▁completely	-11.6371
▁baked	-11.6389
▁nails	-11.6396
aren	-11.6428
▁pockets	-11.6457
▁stare	-11.6458
▁Pip	-11.6473
Exc	-11.6474
▁Hannah	-11.6474
▁Larry	-11.6474
▁Luke	-11.6474
▁twinkling	-11.6474
▁restored	-11.6481
Put	-11.6488
▁buckets	-11.6502
▁sides	-11.6545
▁sigh	-11.6567
▁disagree	-11.6579
▁motion	-11.6583
▁poking	-11.6583
▁project	-11.6583
▁written	-11.6583
▁curly	-11.6583
▁stroke	-11.6593
ad	-11.66
▁balanced	-11.6604
no	-11.6613
▁pupil	-11.6616
▁lower	-11.6619
ap	-11.6623
▁singer	-11.6628
▁sn	-11.6629
▁co	-11.6648
ery	-11.6673
Not	-11.6689
ayla	-11.6693
▁east	-11.6693
▁pajamas	-11.6693
▁pastries	-11.6693
▁bunch	-11.6693
▁Pinky	-11.6693
▁Lulu	-11.6694
▁quacked	-11.6698
▁loaded	-11.6704
▁rescued	-11.6705
œHello	-11.6712
▁prayer	-11.6729
▁marker	-11.673
▁curtains	-11.6744
▁applaud	-11.6797
▁arrive	-11.68
▁harm	-11.6803
▁flat	-11.6804
▁Wednesday	-11.6804
▁burrow	-11.6804
▁forehead	-11.6804
▁kneeled	-11.6809
▁united	-11.6811
▁melting	-11.6814
li	-11.6815
▁polishing	-11.6818
▁studying	-11.6819
▁recorded	-11.682
▁honk	-11.6829
▁celebration	-11.6916
▁creating	-11.6916
▁shelves	-11.6916
▁matched	-11.6944
▁rule	-11.6953
Two	-11.6969
you	-11.698
▁Jacky	-11.7019
▁flash	-11.702
▁slap	-11.7029
▁sweeties	-11.7029
▁Jacob	-11.703
▁unicorn	-11.703
▁Abbie	-11.703
▁dusty	-11.7033
▁bravery	-11.7037
▁tasks	-11.7037
▁cheering	-11.7046
▁kicking	-11.7051
L	-11.7051
ig	-11.7083
▁rainbows	-11.7093
▁flames	-11.7108
▁blink	-11.7135
▁horns	-11.7138
▁kneel	-11.7139
▁Sophia	-11.7145
▁Suzie	-11.7145
▁ventured	-11.7146
▁startled	-11.7146
▁itchy	-11.7146
▁bedtime	-11.7147
▁single	-11.7148
▁gazed	-11.7148
▁replaced	-11.7152
▁weeping	-11.7153
▁b	-11.7159
▁rolls	-11.7197
▁magnets	-11.7203
z	-11.7203
▁Good	-11.7212
▁worker	-11.7213
▁Pam	-11.7227
led	-11.7239
▁photos	-11.7245
▁scar	-11.7252
▁ornaments	-11.7253
▁Carl	-11.7259
▁Gigi	-11.7261
▁Betty	-11.7261
▁arguing	-11.7261
▁hugging	-11.7261
▁knowledge	-11.7261
▁truly	-11.7261
▁regretted	-11.7261
▁swoop	-11.7261
▁misses	-11.7262
▁healed	-11.7275
▁cracked	-11.7276
▁tickle	-11.7298
P	-11.7299
▁Th	-11.7306
Boo	-11.7314
Sometimes	-11.7329
is	-11.7345
▁talent	-11.7374
▁stamps	-11.7374
▁keeps	-11.7374
▁rumble	-11.7374
obbie	-11.7378
▁Abby	-11.7379
▁activities	-11.7379
▁patience	-11.7379
▁raincoat	-11.7379
▁relief	-11.7379
▁tractor	-11.7379
▁wrist	-11.7379
▁ruler	-11.7379
▁farther	-11.738
ling	-11.7381
▁crowd	-11.7381
▁buying	-11.7383
▁meow	-11.7386
▁tour	-11.7388
▁removed	-11.7388
œMommy	-11.7391
▁pebbles	-11.7392
▁polished	-11.7393
ng	-11.7394
▁snakes	-11.7402
▁rid	-11.7402
▁Bye	-11.742
▁crabs	-11.742
▁bumps	-11.7421
▁pencils	-11.7446
oth	-11.7455
▁den	-11.7456
▁zigzag	-11.7477
▁towels	-11.7489
▁sticking	-11.7493
▁strings	-11.7498
▁Amelia	-11.7498
▁stolen	-11.7498
▁growling	-11.7503
▁observed	-11.7506
▁peeking	-11.7513
▁shined	-11.7515
▁chewing	-11.7516
▁opening	-11.7538
▁cub	-11.7538
▁explorers	-11.7539
▁sandcastles	-11.754
ent	-11.7559
go	-11.7564
▁trips	-11.7598
▁achieve	-11.7614
Yeah	-11.7618
▁desert	-11.7618
▁fault	-11.7618
▁glasses	-11.762
▁coloured	-11.7634
œOh	-11.7634
▁traveled	-11.7636
▁growl	-11.7652
▁roots	-11.7657
▁spike	-11.7664
▁smiley	-11.7673
obby	-11.7695
▁prints	-11.7701
▁lap	-11.7713
▁pause	-11.7736
▁super	-11.774
▁bumpy	-11.7744
▁dipp	-11.7744
▁covers	-11.7764
▁chips	-11.7772
▁cuts	-11.7775
▁firefighters	-11.7796
▁bat	-11.7804
▁d	-11.7847
▁inch	-11.7848
▁youth	-11.786
▁yells	-11.7861
▁Elly	-11.7863
▁hedgehog	-11.7863
▁victory	-11.7863
▁squealed	-11.7864
▁tickled	-11.787
▁improved	-11.7874
▁Leave	-11.7875
œWhy	-11.7876
▁valued	-11.7879
▁herbs	-11.788
▁crumbs	-11.7885
▁rocking	-11.7901
▁spill	-11.7903
▁flags	-11.7911
▁patte	-11.7918
▁Happy	-11.7925
▁Not	-11.7962
▁reveal	-11.7984
▁twinkle	-11.7984
▁gaze	-11.7984
▁cause	-11.7987
▁families	-11.7988
▁particular	-11.7988
▁yesterday	-11.7988
▁fuzzy	-11.7988
▁hallway	-11.7989
▁Owl	-11.7989
▁Out	-11.7989
▁rockets	-11.7994
▁sobbed	-11.7995
Bad	-11.8003
▁wandering	-11.8004
▁creamy	-11.8012
▁copy	-11.8015
▁staying	-11.8069
▁drives	-11.809
▁Water	-11.8115
▁Christmas	-11.8115
▁wiggled	-11.8118
▁w	-11.8119
▁caused	-11.8122
▁boo	-11.8128
▁squares	-11.8129
▁catche	-11.8129
▁rubs	-11.8132
▁adding	-11.8137
▁pro	-11.8153
▁coloring	-11.8162
▁situation	-11.8166
▁opinion	-11.8166
▁stair	-11.8168
uring	-11.8169
▁teache	-11.817
Fine	-11.8174
▁seems	-11.8181
▁sweets	-11.8184
ut	-11.8185
oh	-11.8191
Mama	-11.8193
hello	-11.8194
ara	-11.8218
▁chirp	-11.8234
oar	-11.8236
▁raindrops	-11.8243
▁sense	-11.8243
▁winked	-11.8248
▁wow	-11.8248
▁safer	-11.8297
When	-11.8323
▁workers	-11.8333
F	-11.8344
aking	-11.8358
▁sew	-11.8364
▁cousin	-11.8373
▁daisies	-11.8373
▁exhausted	-11.8373
▁nectar	-11.8373
▁dared	-11.8381
▁unpacked	-11.8386
▁packing	-11.8391
D	-11.8421
▁actions	-11.8423
▁cost	-11.8427
▁dragons	-11.8452
Mummy	-11.8454
▁peppers	-11.8465
▁resting	-11.8483
▁cough	-11.8495
▁awesome	-11.8505
▁inviting	-11.8505
▁pleasure	-11.8505
▁scrubbed	-11.8505
▁secure	-11.8505
▁temperature	-11.8505
▁network	-11.8505
▁badge	-11.8507
▁Lena	-11.8507
▁cast	-11.8507
▁delivered	-11.8519
Then	-11.853
▁Follow	-11.8535
▁faced	-11.8557
▁agrees	-11.8558
▁wasted	-11.8572
▁June	-11.8638
▁liquid	-11.8638
▁warrior	-11.8638
▁groceries	-11.8638
▁seven	-11.8638
▁fairies	-11.8639
▁sprinkle	-11.864
▁Jazz	-11.864
▁baker	-11.8642
▁darkness	-11.8644
▁smarter	-11.8652
▁blooming	-11.8653
▁speaking	-11.8653
▁marked	-11.8657
▁needles	-11.868
let	-11.8689
▁twin	-11.8697
bye	-11.8707
▁importan	-11.8732
▁Bongo	-11.8773
▁Mabel	-11.8773
▁Snuggles	-11.8773
▁piggy	-11.8773
▁reply	-11.8773
▁fever	-11.8773
▁cautiously	-11.8774
▁mane	-11.8777
▁achieved	-11.8778
▁princesses	-11.8779
▁soaked	-11.878
▁recording	-11.8793
▁goals	-11.8819
▁calmed	-11.8821
E	-11.886
▁jackets	-11.8874
▁click	-11.8905
▁Jeff	-11.891
▁chuckled	-11.891
▁stem	-11.891
▁yourselves	-11.891
▁Susan	-11.891
▁Flopsy	-11.891
▁Jones	-11.891
▁beads	-11.891
▁interested	-11.8911
▁potion	-11.8912
oomy	-11.8912
▁delivery	-11.8914
▁Mikey	-11.8915
▁recommended	-11.8916
▁leading	-11.8932
▁somebody	-11.8941
sh	-11.8951
▁Momo	-11.8975
long	-11.8996
▁hi	-11.9
▁demand	-11.904
▁expect	-11.904
▁snuggle	-11.9045
▁Olive	-11.9048
obert	-11.9049
▁Lizzie	-11.9049
▁glee	-11.9049
▁impossible	-11.9049
▁awake	-11.9049
▁dentist	-11.9049
▁bakery	-11.9051
▁fluttered	-11.9053
▁Bird	-11.906
▁Watch	-11.9073
▁wires	-11.908
▁blows	-11.9088
▁snowballs	-11.9104
▁scrape	-11.9106
▁ribbons	-11.9108
▁outfit	-11.9113
▁scales	-11.9122
Mum	-11.914
▁Bo	-11.9149
ered	-11.9159
▁bars	-11.9164
ero	-11.9169
round	-11.9169
▁avoid	-11.9185
▁deserve	-11.9186
ac	-11.9186
▁threat	-11.919
▁Binky	-11.919
▁organizing	-11.919
▁remote	-11.919
▁sponge	-11.919
▁losing	-11.919
▁Buzzy	-11.9193
ard	-11.9196
▁paddled	-11.9196
▁filling	-11.9224
▁Bee	-11.926
ail	-11.928
John	-11.9282
Just	-11.9283
To	-11.9311
▁froze	-11.9332
▁Pippin	-11.9333
▁cashier	-11.9333
▁joking	-11.9333
▁toddler	-11.9333
▁Johnson	-11.9333
Great	-11.9334
▁masks	-11.9334
▁pointy	-11.9337
▁Doggy	-11.9339
da	-11.9342
▁skill	-11.9402
▁wipes	-11.9412
▁pedals	-11.9442
Th	-11.9445
▁glitter	-11.9467
▁mention	-11.9473
Y	-11.9477
▁burst	-11.9478
▁determination	-11.9478
▁hesitant	-11.9478
▁napkins	-11.9478
▁deal	-11.9478
▁radishes	-11.9479
▁stomped	-11.9479
Meow	-11.9479
▁splashes	-11.948
▁seeker	-11.9484
▁owners	-11.9484
▁belly	-11.9489
▁hider	-11.9504
▁protecting	-11.952
▁helmets	-11.952
▁vowe	-11.9521
id	-11.9538
▁colored	-11.9545
▁seagull	-11.9548
▁muscle	-11.9549
▁rip	-11.9556
po	-11.9587
ul	-11.9593
▁limes	-11.9595
▁sh	-11.9608
▁Jay	-11.9624
▁charge	-11.9625
▁storekeeper	-11.9625
▁candies	-11.9625
▁scarves	-11.9625
▁tiptoe	-11.9625
▁sneaky	-11.9629
▁tallest	-11.9632
▁Nothing	-11.9633
▁allow	-11.9635
▁leaning	-11.9645
▁Get	-11.9647
▁knees	-11.9667
▁wink	-11.9689
▁zookeeper	-11.9697
▁siren	-11.9698
▁knights	-11.9698
▁signed	-11.9709
ish	-11.9757
▁chick	-11.9774
alph	-11.9774
▁Gary	-11.9774
▁afterwards	-11.9774
▁husband	-11.9774
▁miles	-11.9774
▁recipe	-11.9774
▁rising	-11.9774
▁Maddy	-11.9774
▁artist	-11.9774
▁fl	-11.9782
▁everybody	-11.9785
▁ham	-11.9794
▁eats	-11.9809
▁dreamt	-11.9837
come	-11.9851
▁re	-11.9895
▁objects	-11.99
▁creations	-11.9907
▁wobble	-11.9921
▁die	-11.9923
▁Jojo	-11.9925
▁Wendy	-11.9925
▁diving	-11.9925
▁lettuce	-11.9925
▁third	-11.9925
▁weekend	-11.9925
▁flapping	-11.9926
▁travelled	-11.9926
▁hesitated	-11.9926
▁parties	-11.9927
▁salty	-11.993
▁gracefully	-11.9934
▁cheeks	-11.9975
▁bowls	-11.9981
man	-11.9991
▁Goodbye	-12
▁chef	-12.0003
▁lung	-12.0012
▁Sorry	-12.0025
Whee	-12.0029
el	-12.0058
▁chop	-12.0079
▁Granny	-12.0079
▁afford	-12.0079
▁feast	-12.0079
▁handsome	-12.0079
▁raccoon	-12.0079
▁rusty	-12.0079
▁sailboat	-12.0079
▁beginning	-12.0079
▁talented	-12.0085
▁giraffes	-12.0096
▁tricked	-12.0097
▁pots	-12.0108
us	-12.0129
▁age	-12.013
▁arrows	-12.0145
▁dots	-12.015
▁flavor	-12.016
Jack	-12.0186
Tommy	-12.0186
ier	-12.0191
▁meals	-12.02
▁wiggle	-12.0231
▁dancers	-12.0235
▁Milo	-12.0236
▁tangled	-12.0236
▁spoonful	-12.0237
▁closes	-12.0238
▁siblings	-12.0239
▁grin	-12.0239
▁requested	-12.0245
▁slices	-12.0246
ther	-12.025
▁drawn	-12.0252
▁mat	-12.0264
▁hissed	-12.0274
▁aren	-12.0275
▁marks	-12.0287
▁lungs	-12.0314
▁scra	-12.0329
▁tigers	-12.0336
▁Laura	-12.0394
▁mixture	-12.0394
▁snowmen	-12.0394
▁swept	-12.0394
▁neither	-12.0394
▁flight	-12.0394
▁Tara	-12.0395
bbled	-12.0396
▁Po	-12.0397
▁fluttering	-12.0398
▁handful	-12.04
▁Bluey	-12.0402
▁backwards	-12.0404
▁master	-12.0406
▁folding	-12.0419
▁darker	-12.042
▁printing	-12.0421
▁kites	-12.0434
▁naps	-12.0437
▁Janey	-12.0452
her	-12.0458
▁prove	-12.0466
room	-12.0469
▁wound	-12.0479
▁adult	-12.0479
ation	-12.0538
ince	-12.0554
▁Chris	-12.0556
▁audience	-12.0556
▁coral	-12.0556
▁grabbing	-12.0556
▁widened	-12.0556
▁superheroes	-12.0556
▁sausages	-12.0557
▁Enjoy	-12.0566
▁wears	-12.057
ight	-12.062
▁texture	-12.0643
▁guest	-12.0643
bo	-12.0647
loved	-12.067
▁pans	-12.0707
▁Earth	-12.072
▁Gina	-12.072
▁Mickey	-12.072
▁familiar	-12.072
▁starfish	-12.072
▁worn	-12.072
▁basement	-12.072
▁Holly	-12.072
▁performance	-12.072
▁gross	-12.072
▁Princess	-12.072
▁Fox	-12.0723
▁Green	-12.0723
▁insects	-12.0723
▁windy	-12.076
▁grassy	-12.0772
▁chefs	-12.0802
▁firefighter	-12.081
ite	-12.0819
▁pumpkins	-12.0853
▁wraps	-12.0883
▁silent	-12.0885
▁noses	-12.0885
▁Judy	-12.0886
▁Julia	-12.0886
▁celebrating	-12.0886
▁creativity	-12.0886
▁heavier	-12.0886
▁wrapping	-12.0887
▁pouted	-12.0888
▁logs	-12.089
▁complained	-12.0898
▁forgetting	-12.0899
▁bully	-12.0903
▁g	-12.0909
▁paying	-12.0927
ma	-12.093
am	-12.0933
▁reads	-12.0952
▁drawers	-12.0966
ot	-12.0976
Ah	-12.0982
▁vow	-12.1005
▁uses	-12.1052
▁Farmer	-12.1056
▁Frog	-12.1056
▁Jax	-12.1056
▁bodies	-12.1056
▁indeed	-12.1056
▁merry	-12.1056
▁puppies	-12.1056
▁accomplishment	-12.1056
▁Bessie	-12.1056
Shh	-12.1056
▁wept	-12.1056
▁scratches	-12.1056
▁source	-12.1057
▁Davey	-12.1064
▁provided	-12.1069
▁separated	-12.107
▁shrinking	-12.1072
▁surroundings	-12.1076
pe	-12.1104
▁swims	-12.1127
▁guy	-12.1152
▁fears	-12.1155
▁Ow	-12.1173
Next	-12.1178
▁includ	-12.1218
nna	-12.1219
▁corners	-12.1224
uick	-12.1227
▁Froggy	-12.1228
▁consequences	-12.1228
Bang	-12.1228
▁crew	-12.1228
▁Friends	-12.1228
▁Daniel	-12.1228
▁dollhouse	-12.1229
▁granted	-12.1231
▁Paula	-12.1232
▁tricky	-12.1233
▁knocks	-12.1244
▁Stay	-12.125
▁wa	-12.1302
aw	-12.1312
▁sniff	-12.1318
▁darling	-12.1326
▁spikes	-12.1337
▁presse	-12.1354
▁clowns	-12.1358
▁avocados	-12.1361
▁Stitch	-12.1404
▁horizon	-12.1404
▁nine	-12.1404
▁stool	-12.1404
▁hawk	-12.1404
▁magician	-12.1404
▁plucked	-12.1404
▁neatly	-12.1412
▁delivering	-12.1423
▁behaved	-12.1427
▁dresser	-12.1442
▁glued	-12.1445
▁wishing	-12.1503
low	-12.1508
▁forks	-12.1511
Lila	-12.1532
▁humans	-12.1547
▁seconds	-12.1554
▁Dr	-12.1563
▁willing	-12.1568
▁neighbours	-12.1574
Woof	-12.1582
▁among	-12.1582
▁swimsuit	-12.1582
▁planning	-12.1583
▁buzzed	-12.1586
▁teased	-12.1595
▁rushing	-12.1595
▁kicks	-12.1597
▁Dog	-12.1604
▁crossing	-12.1618
▁materials	-12.1633
time	-12.1658
we	-12.1682
▁onward	-12.1688
▁lo	-12.172
▁foods	-12.1728
ment	-12.1729
▁gems	-12.1732
▁flutter	-12.1755
▁damage	-12.176
▁chat	-12.1763
▁leas	-12.1764
▁Gemma	-12.1764
▁amount	-12.1764
Nice	-12.1764
▁Sadie	-12.1764
▁Mouse	-12.1764
▁echoed	-12.1766
yan	-12.1768
▁touches	-12.1777
▁hitting	-12.1779
▁spices	-12.1784
▁screws	-12.1794
▁Listen	-12.1802
▁warnings	-12.1805
▁tails	-12.181
▁ma	-12.1828
▁hopeful	-12.1832
▁wins	-12.1836
ist	-12.1859
œDo	-12.1874
▁remembering	-12.1888
▁directions	-12.1898
▁begin	-12.1921
▁symbols	-12.1936
▁Abi	-12.1949
▁genie	-12.1949
▁marshmallows	-12.1949
▁stung	-12.1949
▁telescope	-12.1949
▁Simon	-12.1949
▁Todd	-12.1949
ntil	-12.195
▁lollipops	-12.1956
▁cobwebs	-12.1959
▁strongest	-12.1964
▁peacefully	-12.197
▁sailors	-12.1971
▁resisted	-12.1972
▁timer	-12.1981
▁tunnels	-12.1997
▁tested	-12.1997
▁edges	-12.2026
ne	-12.203
▁rings	-12.2044
▁De	-12.2058
▁cr	-12.206
top	-12.2063
nder	-12.2067
▁hides	-12.2094
▁helpers	-12.21
J	-12.21
▁mushrooms	-12.2108
▁ache	-12.2115
▁Maddie	-12.2138
▁conversation	-12.2138
▁imagining	-12.2138
▁occasion	-12.2138
▁prettier	-12.2138
▁reason	-12.2138
▁rustling	-12.2138
▁sale	-12.2138
▁sank	-12.2138
▁Splash	-12.2141
▁honked	-12.2146
œMy	-12.2148
▁younger	-12.2153
avi	-12.2154
▁passengers	-12.2161
▁Sh	-12.2176
œWow	-12.2179
▁feeding	-12.2188
▁designs	-12.219
▁choices	-12.222
▁listens	-12.2225
▁Thanks	-12.2245
▁swirl	-12.2253
▁hour	-12.2254
▁snowball	-12.2255
▁growls	-12.2258
▁dip	-12.2259
the	-12.227
ball	-12.2279
ally	-12.2279
▁onions	-12.2293
▁minerals	-12.2327
▁Curious	-12.233
▁Martha	-12.233
▁behaving	-12.233
▁behavior	-12.233
▁center	-12.233
▁mesmerized	-12.233
▁scientist	-12.233
▁unsure	-12.233
▁vanilla	-12.233
▁Fuzzy	-12.2331
▁stitches	-12.2331
ure	-12.2334
▁Pretty	-12.2335
▁increased	-12.2338
▁complaining	-12.2344
nny	-12.2346
▁Mo	-12.235
▁praying	-12.2351
▁ropes	-12.2357
▁playtime	-12.2366
▁borrowed	-12.2371
▁players	-12.2373
▁pens	-12.2378
▁sever	-12.238
hi	-12.239
▁nearly	-12.2412
he	-12.2417
▁poems	-12.2422
▁adults	-12.2422
▁curiously	-12.2434
Little	-12.2477
Today	-12.2477
▁images	-12.2507
▁Aunt	-12.2526
▁drums	-12.2526
▁Amanda	-12.2526
▁ease	-12.2526
▁trampoline	-12.2526
▁twice	-12.2526
▁wobbly	-12.2526
ueen	-12.2526
Yummy	-12.2526
▁zipping	-12.2527
▁joyful	-12.2528
▁swallowed	-12.2528
▁rewarded	-12.2548
▁repaired	-12.2548
▁vines	-12.256
elly	-12.258
ity	-12.2585
▁action	-12.2651
▁rivers	-12.2656
W	-12.2694
▁noon	-12.2695
▁pl	-12.2715
▁plans	-12.2721
▁Stan	-12.2722
▁final	-12.2725
▁Birthday	-12.2726
▁Elsa	-12.2726
▁couple	-12.2726
▁enthusiasm	-12.2726
▁geese	-12.2726
▁surfboard	-12.2726
Oops	-12.2726
▁Wally	-12.2726
▁flown	-12.2727
▁dropping	-12.2727
▁arranged	-12.2727
▁Maya	-12.2728
▁Finn	-12.2729
▁treehouse	-12.273
▁wobbled	-12.2732
œWell	-12.2738
▁poster	-12.2746
œHi	-12.2749
▁healing	-12.2752
▁cushions	-12.2781
▁spreading	-12.2794
▁learns	-12.2795
ge	-12.2797
▁braver	-12.2805
▁oh	-12.2806
all	-12.285
▁item	-12.2859
pl	-12.2876
▁Well	-12.2877
▁wip	-12.2924
efinitely	-12.293
▁Spidey	-12.293
▁Squeaky	-12.293
▁beehive	-12.293
▁blast	-12.293
▁refreshing	-12.293
▁sandpit	-12.293
▁elf	-12.293
▁travelling	-12.2931
yes	-12.2931
▁snatche	-12.2932
▁heroes	-12.2935
▁slower	-12.2942
▁hearing	-12.2946
▁lighter	-12.2957
▁paths	-12.2965
▁warmer	-12.2977
ked	-12.3003
▁finishing	-12.3005
per	-12.3023
▁guests	-12.3027
oey	-12.3075
ave	-12.3093
▁baths	-12.3102
▁matters	-12.3105
▁buzz	-12.3129
▁ignor	-12.313
N	-12.3133
Time	-12.3136
▁stern	-12.3137
▁erase	-12.3138
▁health	-12.3138
▁Fiona	-12.3139
▁Nora	-12.3139
▁awoke	-12.3139
▁campfire	-12.3139
▁examining	-12.3139
▁pennies	-12.3139
▁seaweed	-12.3139
▁thud	-12.3139
▁firefly	-12.3139
▁steady	-12.3139
▁plain	-12.3139
▁aimed	-12.314
Playing	-12.3141
▁focused	-12.3142
▁seller	-12.3143
œNow	-12.3147
▁thrown	-12.3148
œCome	-12.3152
▁yielded	-12.3153
▁slips	-12.3162
œMom	-12.3163
--	-12.3167
▁sunflowers	-12.3171
▁acting	-12.3179
▁flips	-12.3201
▁breathed	-12.3216
▁notes	-12.3224
way	-12.3252
▁pad	-12.3274
▁robber	-12.3274
▁visitor	-12.3283
Like	-12.3301
hind	-12.3328
▁caus	-12.3342
▁stain	-12.3347
▁bleed	-12.3347
▁Alison	-12.3351
▁Muffin	-12.3351
▁Squirrel	-12.3351
▁beyond	-12.3351
▁cuddly	-12.3351
▁freedom	-12.3351
▁scamper	-12.3351
▁noodles	-12.3351
Ew	-12.3351
▁chopped	-12.3352
▁Sparky	-12.3352
▁squishy	-12.3352
▁Tessa	-12.3352
▁faded	-12.3354
▁slamm	-12.3354
▁Jess	-12.3356
▁Star	-12.3356
▁chosen	-12.3357
▁triangles	-12.3366
▁snowflakes	-12.3372
▁politely	-12.3373
ring	-12.3379
▁cupcakes	-12.3405
▁tr	-12.3418
aty	-12.3425
▁swords	-12.3435
▁videos	-12.3438
▁cowboy	-12.3492
Follow	-12.3519
Grandma	-12.3519
▁stands	-12.352
▁baskets	-12.3523
lent	-12.3529
erry	-12.3542
▁sports	-12.3549
▁oysters	-12.355
king	-12.3551
▁Lia	-12.3561
▁steer	-12.3564
▁twenty	-12.3569
▁William	-12.3569
▁guide	-12.3569
▁daring	-12.3569
rust	-12.3569
oger	-12.3569
▁sneezing	-12.357
▁insisting	-12.3573
▁toaster	-12.3575
▁Hope	-12.3575
▁throughout	-12.3576
▁nervously	-12.3588
▁dived	-12.3591
▁twisting	-12.3593
by	-12.3596
ca	-12.3609
▁softer	-12.3609
▁shown	-12.3626
▁sniffs	-12.3665
▁flavors	-12.3677
▁warmly	-12.3681
▁heading	-12.3684
▁whose	-12.3697
ag	-12.3697
▁pupils	-12.3723
one	-12.3772
years	-12.3785
▁refuse	-12.3787
H	-12.3788
▁compassion	-12.3791
▁decorating	-12.3791
▁grandson	-12.3791
▁intrigued	-12.3791
▁Crabby	-12.3791
▁Skip	-12.3791
▁tidie	-12.3791
▁trott	-12.3791
▁reflection	-12.3791
▁Mother	-12.3791
uack	-12.3791
▁belongings	-12.3791
▁driveway	-12.3792
▁explorer	-12.3792
▁streamers	-12.3792
▁Birdy	-12.3793
▁stopping	-12.3796
▁twisty	-12.3797
ink	-12.3798
▁twinkled	-12.3798
▁sewed	-12.3799
▁base	-12.3803
▁suffered	-12.3803
▁forgets	-12.3805
▁whispering	-12.3808
▁lending	-12.3812
▁grandparents	-12.3816
▁performing	-12.382
▁designed	-12.3823
▁mailed	-12.3851
▁spins	-12.3858
ily	-12.3938
▁sled	-12.3944
Bun	-12.3969
▁shoo	-12.3977
▁gardener	-12.3999
ble	-12.4004
▁Fido	-12.4018
▁Gabby	-12.4018
▁Tuna	-12.4018
▁fantastic	-12.4018
▁oatmeal	-12.4018
▁ponies	-12.4018
▁probably	-12.4018
▁rotten	-12.4018
▁paintbrush	-12.4018
▁address	-12.4018
▁battle	-12.4018
▁Outside	-12.4018
▁suggestion	-12.4018
▁cosy	-12.4018
iley	-12.4018
▁punishment	-12.4018
▁grand	-12.4018
▁coach	-12.4019
uth	-12.4019
war	-12.402
▁Love	-12.4026
▁trembled	-12.4029
▁Momma	-12.4033
▁wider	-12.4034
▁surrendered	-12.4041
Too	-12.4041
▁goodies	-12.4042
▁quarreling	-12.4043
▁calmly	-12.4046
▁dollars	-12.4053
▁fins	-12.4064
▁whispers	-12.4065
▁playroom	-12.4066
▁loops	-12.4104
So	-12.4143
rink	-12.4181
▁joining	-12.4184
▁results	-12.4185
▁drivers	-12.4217
▁talks	-12.4224
ah	-12.4226
og	-12.4235
▁beautifully	-12.4238
▁cleaner	-12.4242
▁Jan	-12.4248
▁Maisy	-12.4251
▁Meanwhile	-12.4251
▁Michael	-12.4251
▁Peggy	-12.4251
▁cherish	-12.4251
▁compare	-12.4251
▁conflict	-12.4251
▁mermaid	-12.4251
▁response	-12.4251
▁slither	-12.4251
▁tissue	-12.4251
▁waterfall	-12.4251
▁Pandy	-12.4251
▁gap	-12.4251
▁tying	-12.4251
▁Nana	-12.4251
▁Frankie	-12.4251
▁connected	-12.4252
▁napping	-12.4253
▁forgiveness	-12.4255
▁foxes	-12.4262
▁appreciated	-12.4268
mbled	-12.4279
▁flick	-12.428
▁performed	-12.4281
▁colder	-12.4291
▁diamonds	-12.4296
▁statues	-12.4301
▁risks	-12.4304
ying	-12.433
▁races	-12.4338
▁novels	-12.4348
▁camel	-12.4361
ded	-12.4378
▁shirts	-12.4378
ough	-12.4395
▁puppet	-12.4411
Listen	-12.4439
▁belts	-12.448
▁curl	-12.4483
ighting	-12.4484
▁Tess	-12.4488
▁certain	-12.4489
▁Becky	-12.4489
▁Ginger	-12.4489
▁Still	-12.4489
▁annoyed	-12.4489
▁anticipation	-12.4489
▁appreciation	-12.4489
▁elbow	-12.4489
▁encouraging	-12.4489
▁screwdriver	-12.4489
▁syrup	-12.4489
▁aisle	-12.4489
▁Joanna	-12.4489
▁Meg	-12.4489
▁swimmer	-12.4489
▁Louise	-12.4489
▁postman	-12.4489
▁waddled	-12.449
nce	-12.4492
▁sniffing	-12.4495
▁tweet	-12.4505
▁scored	-12.4506
▁cloudy	-12.4508
▁roars	-12.4525
▁rainy	-12.4545
▁seashells	-12.4561
ha	-12.4569
▁roses	-12.4574
▁leads	-12.4632
cal	-12.4635
▁spills	-12.4638
ock	-12.4663
▁aside	-12.4674
Lucy	-12.4683
Sue	-12.4683
but	-12.4684
found	-12.4684
▁bows	-12.4684
spit	-12.4698
▁nibble	-12.4729
▁Fuzz	-12.4732
▁Pepper	-12.4733
▁Yesterday	-12.4733
▁believing	-12.4733
▁changing	-12.4733
▁concert	-12.4733
▁gesture	-12.4733
▁heartbroken	-12.4733
▁increasing	-12.4733
▁preparing	-12.4733
▁ramp	-12.4733
▁shady	-12.4733
▁tipped	-12.4733
▁fr	-12.474
▁weeds	-12.4744
▁pedaled	-12.4744
▁sweetest	-12.4745
▁suffering	-12.4746
▁reversed	-12.4753
▁swans	-12.4756
▁bravest	-12.4773
▁smallest	-12.4773
▁students	-12.4785
ids	-12.4822
▁Me	-12.4846
fully	-12.4919
Mine	-12.4932
line	-12.4946
▁officers	-12.4955
▁munch	-12.4978
▁untie	-12.4979
▁stumble	-12.4979
▁firm	-12.4981
▁swollen	-12.4983
▁Nancy	-12.4983
▁straw	-12.4983
▁permitted	-12.4983
▁pepperoni	-12.4983
▁batteries	-12.4983
▁Patty	-12.4983
▁reassured	-12.4983
▁meowing	-12.4993
▁Ali	-12.4995
▁respected	-12.5045
▁worrying	-12.5047
▁blocked	-12.5056
Bob	-12.5075
▁gr	-12.511
▁seashell	-12.5163
▁flip	-12.5163
▁toward	-12.5164
▁Ma	-12.5186
Fluffy	-12.519
▁squeak	-12.5233
▁snatch	-12.5237
▁blond	-12.5239
▁quilt	-12.5239
▁skunk	-12.5239
▁spooky	-12.5239
▁wiggly	-12.5239
▁discoveries	-12.524
▁million	-12.524
▁stall	-12.524
ok	-12.524
▁firmly	-12.5241
▁smashed	-12.5241
tumbled	-12.5245
▁damaged	-12.5245
▁Snap	-12.5245
ita	-12.5252
▁soapy	-12.5252
▁anger	-12.5256
▁delayed	-12.5259
▁crashing	-12.5264
▁speeding	-12.5278
to	-12.5281
▁la	-12.5297
▁gears	-12.531
▁cheers	-12.5316
▁breathing	-12.5317
ky	-12.5323
▁biting	-12.5327
ue	-12.5328
▁dances	-12.5341
▁planting	-12.5345
▁members	-12.5359
▁height	-12.5366
▁da	-12.539
be	-12.5416
▁efforts	-12.5434
▁ba	-12.5445
▁zebras	-12.5485
▁insist	-12.5494
mon	-12.5495
▁imagina	-12.5502
▁yum	-12.5502
▁Jennie	-12.5502
▁Olivia	-12.5502
▁canvas	-12.5502
▁conductor	-12.5502
▁inspired	-12.5502
▁nuzzle	-12.5502
▁target	-12.5502
▁veggies	-12.5502
▁Josie	-12.5502
▁spat	-12.5503
▁panicked	-12.5503
▁Janie	-12.5503
▁desp	-12.5504
▁awful	-12.5505
Choo	-12.5508
▁woof	-12.5512
▁frowning	-12.5516
▁beating	-12.5517
▁surfing	-12.5519
▁clearly	-12.5523
▁discussing	-12.5524
▁chin	-12.5528
▁fishes	-12.5532
œOkay	-12.5536
▁uniforms	-12.5543
▁months	-12.5545
▁cleared	-12.5563
▁purrs	-12.5567
▁shaped	-12.5568
▁brushing	-12.5572
▁passports	-12.5615
ssed	-12.5644
▁alien	-12.5695
▁type	-12.5695
▁material	-12.5696
▁watering	-12.5709
Mr	-12.5725
▁picnics	-12.5747
od	-12.5748
▁cuddles	-12.5757
▁Feel	-12.5773
▁admiration	-12.5773
▁footsteps	-12.5773
▁grandfather	-12.5773
▁reunited	-12.5773
▁rinse	-12.5773
▁sprout	-12.5773
▁squeezing	-12.5773
▁globe	-12.5773
▁artwork	-12.5773
▁toolbox	-12.5773
athy	-12.5774
▁convinced	-12.5776
▁doorway	-12.5778
ory	-12.5792
œHey	-12.5793
▁Baa	-12.5794
▁experienced	-12.5796
▁gasp	-12.5802
▁wisely	-12.5823
▁puzzled	-12.5851
▁di	-12.5853
▁maker	-12.5855
▁angels	-12.5858
▁tidying	-12.5861
▁smelling	-12.5881
▁treated	-12.5892
▁soaking	-12.5893
▁mints	-12.5908
An	-12.5912
G	-12.5931
▁fits	-12.5937
▁exercises	-12.5943
py	-12.595
▁ties	-12.5972
▁fact	-12.5973
▁pose	-12.5975
▁duckling	-12.5976
▁suits	-12.5983
▁shops	-12.6
ani	-12.6031
▁grant	-12.6046
▁puff	-12.6049
iest	-12.605
▁Hoot	-12.605
Surprise	-12.605
▁Izzy	-12.605
▁Mamma	-12.605
▁Super	-12.605
▁ankle	-12.605
▁evil	-12.605
▁extraordinary	-12.605
▁garbage	-12.605
▁jogger	-12.605
▁nasty	-12.605
▁opposite	-12.605
▁shrunk	-12.605
▁solving	-12.605
▁pleaded	-12.605
▁mommies	-12.6051
▁shave	-12.6051
▁Ever	-12.6051
▁chilly	-12.6051
▁accomplished	-12.6052
▁judges	-12.6052
▁rays	-12.6052
▁sternly	-12.6053
▁spy	-12.6053
▁swayed	-12.6053
▁rotting	-12.6054
▁squeaked	-12.6056
▁munching	-12.6056
▁Fire	-12.6059
▁sewing	-12.6061
▁blinking	-12.6062
▁honking	-12.6062
œWhere	-12.6063
▁banged	-12.6069
▁dangers	-12.6071
▁guessing	-12.6088
▁heaven	-12.6109
▁trusting	-12.6113
▁sparks	-12.6119
▁sails	-12.6132
▁necklaces	-12.6137
▁bandages	-12.6141
▁bells	-12.6151
ick	-12.6177
▁magazines	-12.6238
▁chip	-12.6264
vroom	-12.6287
sped	-12.6319
▁whine	-12.6332
▁sill	-12.6335
▁wealth	-12.6335
▁Fran	-12.6336
▁Bruce	-12.6336
▁Halloween	-12.6336
▁Stella	-12.6336
▁bamboo	-12.6336
▁chipmunk	-12.6336
▁cocoon	-12.6336
▁emerged	-12.6336
▁environment	-12.6336
▁generosity	-12.6336
▁scent	-12.6336
▁scrub	-12.6336
▁court	-12.6336
▁masterpiece	-12.6336
Dear	-12.6336
▁laptop	-12.6336
▁flipped	-12.6336
▁dash	-12.6337
▁Excitedly	-12.6337
▁Terry	-12.6337
▁responded	-12.6338
▁nibbled	-12.6341
▁whoosh	-12.6341
▁brains	-12.6345
▁manners	-12.6348
▁obeyed	-12.6352
▁comforting	-12.637
nother	-12.637
œBut	-12.6373
▁seals	-12.6381
▁sp	-12.6397
▁customers	-12.6402
car	-12.641
oy	-12.6414
▁kings	-12.6417
▁packages	-12.6418
ous	-12.6431
▁pigeons	-12.6465
▁dressing	-12.6467
▁travels	-12.647
▁vehicles	-12.647
œThe	-12.649
▁prayers	-12.6539
ched	-12.657
Watch	-12.658
▁leap	-12.6584
▁simpl	-12.6597
▁focus	-12.6626
▁attack	-12.6626
▁knit	-12.663
▁Flora	-12.663
▁Jason	-12.663
▁bride	-12.663
▁confidence	-12.663
▁donkey	-12.663
▁exchange	-12.663
▁exploration	-12.663
▁forgiving	-12.663
▁natural	-12.663
▁paddling	-12.663
▁riddle	-12.663
▁wrinkled	-12.663
▁sunscreen	-12.663
▁unload	-12.663
uff	-12.663
▁encouragement	-12.663
▁afar	-12.663
▁Jonny	-12.663
▁Speedy	-12.6631
▁business	-12.6631
▁Ana	-12.6632
▁Jon	-12.6632
▁mood	-12.6633
▁glittering	-12.664
▁peeled	-12.6645
▁container	-12.6645
▁burying	-12.6651
▁pinching	-12.6661
osa	-12.6677
▁movements	-12.668
choo	-12.6697
▁counts	-12.6741
▁freed	-12.6742
▁within	-12.6768
▁hops	-12.6772
▁cubes	-12.683
Boys	-12.6849
▁Welcome	-12.6849
▁pre	-12.6857
▁cupcake	-12.6861
now	-12.6862
▁knots	-12.6881
▁de	-12.6884
evin	-12.6912
▁suggest	-12.6929
Goodnight	-12.6933
▁Freddie	-12.6933
▁Libby	-12.6933
▁Sofia	-12.6933
▁Startled	-12.6933
▁compete	-12.6933
▁crouch	-12.6933
▁freezing	-12.6933
▁germs	-12.6933
▁hairdresser	-12.6933
▁hamster	-12.6933
▁sweep	-12.6933
▁Snowman	-12.6933
▁nodding	-12.6933
▁lipstick	-12.6933
▁shallow	-12.6933
▁sadder	-12.6933
▁groom	-12.6934
▁wrapper	-12.6934
▁Finny	-12.6935
▁recorder	-12.694
▁Dory	-12.6943
ning	-12.6944
▁repeating	-12.6953
▁tighter	-12.6964
▁unpacking	-12.6965
▁thorns	-12.697
▁mo	-12.6973
▁leapt	-12.6976
▁bruises	-12.6982
▁lasers	-12.7025
▁mattered	-12.7046
▁shovels	-12.7093
▁hu	-12.7129
ged	-12.7138
▁crowns	-12.7143
bra	-12.7147
▁purr	-12.7159
ug	-12.7164
ned	-12.7167
▁burger	-12.7168
▁beam	-12.7185
▁sheets	-12.7194
▁jars	-12.7196
what	-12.7196
my	-12.7233
▁force	-12.7243
▁self	-12.7246
▁Elsie	-12.7246
▁Gracie	-12.7246
▁Summer	-12.7246
▁applause	-12.7246
▁bouquet	-12.7246
▁classmates	-12.7246
▁closing	-12.7246
▁cottage	-12.7246
▁observing	-12.7246
▁stethoscope	-12.7246
▁survive	-12.7246
▁windowsill	-12.7246
▁dump	-12.7246
▁dripping	-12.7246
uackers	-12.7246
▁luckily	-12.7246
▁Auntie	-12.7246
▁exploded	-12.7248
▁rely	-12.725
œSee	-12.7253
▁nests	-12.726
▁promises	-12.7267
▁Try	-12.7271
▁leaking	-12.7277
▁snowy	-12.7284
▁tearing	-12.7287
œMaybe	-12.7287
▁designing	-12.7291
▁decisions	-12.7292
▁snaps	-12.7292
▁combed	-12.7295
▁instruments	-12.7306
▁clues	-12.7309
▁doves	-12.7312
Tak	-12.7341
▁parted	-12.735
▁surprising	-12.7392
▁textures	-12.7395
▁seagulls	-12.7413
▁member	-12.742
▁outfits	-12.742
▁signing	-12.7428
▁languages	-12.7428
▁kittens	-12.7436
ened	-12.7441
▁ho	-12.7473
ub	-12.7476
ear	-12.7482
▁streets	-12.7489
▁Lou	-12.7495
▁al	-12.7495
▁frowns	-12.7516
Get	-12.7518
print	-12.7519
For	-12.7519
▁spells	-12.7521
▁Flo	-12.7545
▁Bea	-12.7551
▁carrie	-12.7564
▁Prince	-12.7568
▁except	-12.7568
▁Buggy	-12.7568
▁Fortunately	-12.7568
▁Jasmine	-12.7568
▁Lenny	-12.7568
▁Samantha	-12.7568
▁compliment	-12.7568
▁congratulate	-12.7568
▁cotton	-12.7568
▁declared	-12.7568
▁lumberjack	-12.7568
▁scarecrow	-12.7568
▁temptation	-12.7568
▁toothbrush	-12.7568
▁juggle	-12.7568
▁strum	-12.7568
▁Hootie	-12.7569
▁Megan	-12.7569
▁Patches	-12.7569
▁apologised	-12.7569
▁snapping	-12.7569
▁sweaty	-12.7569
▁Lion	-12.7569
▁cafe	-12.757
▁stretches	-12.7571
▁failed	-12.7571
▁shorter	-12.7574
▁Twinkle	-12.7574
▁crunch	-12.7575
▁Say	-12.7584
▁rowed	-12.7586
▁winding	-12.7594
▁wiser	-12.7597
▁Car	-12.7602
▁bothered	-12.7605
▁stamped	-12.7609
▁beeped	-12.7613
▁traveling	-12.7618
▁tires	-12.7621
▁astronauts	-12.7628
wi	-12.7652
▁pandas	-12.7662
▁scores	-12.7678
œWho	-12.7708
▁sirens	-12.7738
▁digs	-12.7766
▁chocolates	-12.7791
side	-12.7805
▁explains	-12.7819
▁risk	-12.7824
▁customer	-12.7825
▁''	-12.7825
▁ra	-12.7895
▁chill	-12.7901
▁Brian	-12.7902
▁activity	-12.7902
▁papa	-12.7902
▁pump	-12.7902
▁purpose	-12.7902
▁seatbelt	-12.7902
▁wheelbarrow	-12.7902
▁Again	-12.7902
▁enemy	-12.7902
▁shall	-12.7902
▁tasting	-12.7902
▁Paw	-12.7902
▁Peep	-12.7902
▁Birdie	-12.7902
▁Bobbie	-12.7902
▁drowned	-12.7903
▁squished	-12.7904
▁croaked	-12.7905
▁yelped	-12.7905
▁actor	-12.7905
▁Martin	-12.7906
▁buses	-12.7908
▁steering	-12.7909
ipped	-12.7912
▁expecting	-12.7913
▁aware	-12.7915
▁flashing	-12.7916
▁Duck	-12.7916
▁hunting	-12.7918
▁disturbing	-12.7918
of	-12.7922
▁repeats	-12.7923
▁brightest	-12.7925
▁Sun	-12.7926
▁Honey	-12.7939
▁changes	-12.794
▁cracks	-12.7941
▁pins	-12.7949
▁relaxing	-12.795
▁choo	-12.7958
▁strok	-12.7966
▁hooks	-12.7967
▁joked	-12.7969
▁Ami	-12.7972
▁computers	-12.8027
▁tickl	-12.8031
cha	-12.8042
ney	-12.8053
▁grip	-12.8099
ye	-12.8183
▁lies	-12.8186
▁adds	-12.819
wo	-12.8191
five	-12.8196
ould	-12.8234
▁tubes	-12.8244
udolph	-12.8247
▁Jonathan	-12.8247
▁Pearl	-12.8247
▁argument	-12.8247
▁binoculars	-12.8247
▁blossom	-12.8247
▁bond	-12.8247
▁communicate	-12.8247
▁companion	-12.8247
▁glide	-12.8247
▁grandchild	-12.8247
▁inchworm	-12.8247
▁riverbank	-12.8247
▁shimmering	-12.8247
▁Ashley	-12.8247
▁beaver	-12.8247
▁Andrew	-12.8247
▁Puppy	-12.8247
▁raising	-12.8247
▁Eric	-12.8247
▁list	-12.8247
▁clip	-12.8247
▁terrified	-12.8247
▁prickly	-12.8247
▁Patch	-12.8247
▁theatre	-12.8247
▁stepping	-12.8248
▁conquered	-12.8248
▁tilted	-12.8249
œGood	-12.825
▁embarrassing	-12.825
▁deed	-12.8252
▁untied	-12.8252
▁blown	-12.8253
▁introduc	-12.8253
▁winking	-12.8259
▁applauding	-12.8261
▁Win	-12.8271
▁cheerfully	-12.8273
▁petting	-12.8273
▁Isn	-12.8281
hich	-12.8281
▁Moo	-12.8286
▁pol	-12.8287
œSure	-12.8288
▁knocking	-12.8292
▁films	-12.8309
▁checking	-12.8329
▁Only	-12.833
▁giggles	-12.8342
▁scooters	-12.835
▁visitors	-12.8374
▁stored	-12.8379
ind	-12.8382
▁Doug	-12.8387
▁Ca	-12.8399
▁darlings	-12.8401
▁forts	-12.8416
More	-12.8427
▁tick	-12.8452
▁scold	-12.8517
▁student	-12.8527
▁flaps	-12.854
▁beetles	-12.855
Sally	-12.8554
▁scurry	-12.8567
hew	-12.8573
j	-12.8595
▁flow	-12.8596
▁loses	-12.8601
▁sprays	-12.8602
▁ja	-12.8602
▁Nathan	-12.8604
▁Jet	-12.8604
▁Mila	-12.8604
▁Pippa	-12.8604
▁chili	-12.8604
▁clerk	-12.8604
▁grandbaby	-12.8604
▁gratitude	-12.8604
▁humming	-12.8604
▁mischievous	-12.8604
▁rescuing	-12.8604
▁rumbling	-12.8604
▁swat	-12.8604
▁townspeople	-12.8604
▁Jelly	-12.8604
▁attempt	-12.8604
▁experiment	-12.8604
▁pouch	-12.8604
▁expression	-12.8604
▁ill	-12.8604
▁Lot	-12.8604
▁CD	-12.8604
▁Smokey	-12.8604
▁matey	-12.8604
▁active	-12.8605
▁bluebird	-12.8606
▁dodge	-12.8606
▁Mae	-12.8607
▁joyfully	-12.8609
▁beaming	-12.8609
▁peak	-12.8613
▁glittered	-12.8615
▁forgiven	-12.8622
▁calmer	-12.8623
▁quieter	-12.8637
All	-12.8637
▁questioned	-12.866
▁thumbs	-12.8723
▁robbers	-12.8735
▁answering	-12.8741
▁crocodiles	-12.8748
olly	-12.8749
▁fleas	-12.8751
▁bracelets	-12.8771
▁wounds	-12.8778
Ma	-12.8802
▁singers	-12.8868
▁hoops	-12.8876
ew	-12.8886
▁shorts	-12.8893
land	-12.8895
▁decoration	-12.8898
▁Sal	-12.892
▁Marc	-12.8939
▁vests	-12.894
▁plug	-12.8954
▁stroll	-12.8964
▁hike	-12.897
▁spra	-12.8973
iki	-12.8973
▁attract	-12.8974
▁Chuck	-12.8974
▁Jean	-12.8974
▁Spanish	-12.8974
▁apology	-12.8974
▁bubbly	-12.8974
▁doorbell	-12.8974
▁expert	-12.8974
▁faint	-12.8974
▁fascinating	-12.8974
▁overhead	-12.8974
▁supplied	-12.8974
▁welcoming	-12.8974
▁Albert	-12.8974
▁energetic	-12.8974
▁teapot	-12.8974
▁unfortunately	-12.8974
▁runner	-12.8974
▁soothing	-12.8974
▁bitten	-12.8974
▁snug	-12.8974
▁appearance	-12.8974
▁skies	-12.8974
▁grumbled	-12.8975
▁squeaky	-12.8976
▁mosquitoes	-12.8976
▁swaying	-12.8978
▁manager	-12.8979
▁spilling	-12.8988
▁flashed	-12.899
▁clicked	-12.8991
▁bounces	-12.8995
▁messes	-12.8996
▁awhile	-12.9
▁offering	-12.9012
▁levers	-12.9022
▁kayaking	-12.9023
▁supported	-12.9024
▁floats	-12.9027
▁returning	-12.9031
▁sandy	-12.9037
▁scolds	-12.9055
ane	-12.9078
▁poses	-12.9078
▁cowboys	-12.9108
▁h	-12.9144
aven	-12.9151
do	-12.9168
▁treasured	-12.9184
▁beg	-12.9187
▁traps	-12.9201
▁fin	-12.9213
▁strokes	-12.9249
ley	-12.9263
Sh	-12.9281
▁clue	-12.9282
▁scares	-12.9286
Stay	-12.9309
please	-12.9309
Billy	-12.9309
▁rats	-12.9311
▁depend	-12.935
▁lizards	-12.9353
▁glimmer	-12.9354
▁convince	-12.9355
▁fade	-12.9355
▁drip	-12.9358
▁scene	-12.9359
Alright	-12.9359
▁Ava	-12.9359
▁Immediately	-12.9359
▁Mona	-12.9359
▁Patrick	-12.9359
▁announced	-12.9359
▁annoying	-12.9359
▁buddy	-12.9359
▁discouraged	-12.9359
▁disobey	-12.9359
▁gazing	-12.9359
▁gliding	-12.9359
▁improving	-12.9359
▁ketchup	-12.9359
▁miracle	-12.9359
▁plumber	-12.9359
▁pounce	-12.9359
▁preschool	-12.9359
▁responsibility	-12.9359
▁routine	-12.9359
▁wildflowers	-12.9359
▁choosing	-12.9359
▁hood	-12.9359
▁wig	-12.9359
▁instantly	-12.9359
▁Toto	-12.9359
▁baa	-12.936
▁Oink	-12.936
iness	-12.936
▁Thankfully	-12.936
▁checkout	-12.9361
▁ashes	-12.9362
▁Matty	-12.9363
▁cheated	-12.9363
▁Monkey	-12.9364
▁flowing	-12.9364
▁Steven	-12.9364
▁napped	-12.9364
▁formed	-12.9366
▁kit	-12.9367
▁finishes	-12.9367
▁cheaper	-12.9369
▁Was	-12.9372
▁pedaling	-12.9377
œPlease	-12.9379
▁nurses	-12.9381
▁Eat	-12.9384
▁crawls	-12.9403
Fish	-12.9408
▁tips	-12.9438
▁figures	-12.9457
▁testing	-12.9461
▁turtles	-12.9468
▁Li	-12.9487
▁otters	-12.9488
▁scribble	-12.9489
▁orders	-12.9521
bble	-12.9537
▁burns	-12.9645
▁instrument	-12.9682
Deal	-12.9708
Jill	-12.9709
▁sometime	-12.9719
spect	-12.9754
▁swallow	-12.9754
ound	-12.9757
▁Excited	-12.9757
▁proper	-12.9757
▁lump	-12.9758
▁Bounce	-12.9759
▁Carefully	-12.9759
▁Melissa	-12.9759
▁Oak	-12.9759
▁Sasha	-12.9759
▁Tiger	-12.9759
▁Trina	-12.9759
▁biscuit	-12.9759
▁embrace	-12.9759
▁granddaughter	-12.9759
▁harmony	-12.9759
▁juggling	-12.9759
▁melody	-12.9759
▁saxophone	-12.9759
▁sculpture	-12.9759
▁smelt	-12.9759
▁squirt	-12.9759
▁tortoise	-12.9759
▁tricycle	-12.9759
▁clutch	-12.9759
▁gallop	-12.9759
▁launch	-12.9759
▁roast	-12.9759
udy	-12.9759
▁foam	-12.9759
▁odd	-12.9759
▁carriage	-12.9759
▁Down	-12.9759
▁JoJo	-12.9759
▁grain	-12.9759
▁coop	-12.9759
▁dial	-12.9759
▁hoot	-12.9759
▁Nate	-12.976
▁Bow	-12.976
▁str	-12.976
▁Elle	-12.9761
▁whined	-12.9764
▁birdhouse	-12.9768
▁Alexa	-12.9768
▁details	-12.9779
iding	-12.9786
▁writer	-12.9787
▁scratching	-12.979
▁dryer	-12.9793
▁goats	-12.9798
œA	-12.981
▁hardest	-12.9812
▁characters	-12.9814
▁switched	-12.9816
▁Dove	-12.9856
▁gasps	-12.9874
▁messages	-12.9881
▁rocky	-12.9882
▁labels	-12.9906
▁bowing	-12.9908
▁drying	-12.9988
izz	-12.9992
▁honks	-13.0043
▁Mel	-13.0077
▁rewards	-13.0081
work	-13.0088
▁astronaut	-13.0098
light	-13.0118
Beep	-13.0125
▁tunes	-13.0141
▁Lu	-13.0143
▁burnt	-13.0147
▁cheat	-13.0166
▁defeat	-13.0171
▁praise	-13.0171
▁Greg	-13.0175
▁Clare	-13.0175
▁Claus	-13.0175
▁glared	-13.0175
▁meatballs	-13.0175
▁peeped	-13.0175
▁pleasant	-13.0175
▁positive	-13.0175
▁prank	-13.0175
▁servant	-13.0175
▁tastie	-13.0175
▁underwater	-13.0175
▁possession	-13.0175
▁spare	-13.0175
▁blame	-13.0175
▁Leah	-13.0175
▁Helen	-13.0175
▁moat	-13.0176
Arrr	-13.0176
▁slapping	-13.0176
▁lace	-13.0176
▁floppy	-13.0176
▁Catty	-13.0176
Hmm	-13.0176
▁slipping	-13.0176
▁correctly	-13.0176
▁squinted	-13.0177
▁collapsed	-13.0177
▁Pup	-13.0177
▁wriggled	-13.0178
itting	-13.0178
▁mayor	-13.0179
▁glistening	-13.0179
▁blushed	-13.0179
▁passes	-13.018
▁defeated	-13.018
▁attacked	-13.0182
▁dodged	-13.0182
▁Wisdom	-13.0183
▁suck	-13.0186
▁Pink	-13.0189
▁benches	-13.0189
▁peas	-13.021
▁icky	-13.0226
▁unlocking	-13.0226
▁listener	-13.0229
▁blades	-13.023
▁stirs	-13.0243
▁hum	-13.0251
ance	-13.0253
▁Mine	-13.0261
▁Dee	-13.027
icky	-13.0297
▁airplanes	-13.0313
▁sweetly	-13.0319
▁sprinkl	-13.0348
ccidents	-13.0349
▁dears	-13.0392
▁differently	-13.041
▁surely	-13.042
▁opinions	-13.0435
ice	-13.0455
In	-13.049
▁crumb	-13.0499
ace	-13.0526
ho	-13.0528
ved	-13.0551
Tweet	-13.056
▁racer	-13.0583
▁pal	-13.0601
▁sway	-13.0604
▁impress	-13.0605
▁pout	-13.0606
▁cautious	-13.0609
aitlyn	-13.061
ufus	-13.061
▁Bouncy	-13.061
▁Buster	-13.061
▁Caroline	-13.061
▁Duke	-13.061
▁Eddie	-13.061
▁Ostrich	-13.061
▁Penelope	-13.061
▁Sabrina	-13.061
▁Shannon	-13.061
▁behaviour	-13.061
▁bomb	-13.061
▁compromise	-13.061
▁countries	-13.061
▁crops	-13.061
▁exercising	-13.061
▁hundred	-13.061
▁magnif	-13.061
▁opportunity	-13.061
▁overwhelmed	-13.061
▁postcard	-13.061
▁satisfaction	-13.061
▁serving	-13.061
▁smoking	-13.061
▁tummies	-13.061
▁worst	-13.061
▁bundle	-13.061
▁harvest	-13.061
▁stew	-13.061
▁beast	-13.061
▁electricity	-13.061
▁noticing	-13.061
▁blob	-13.061
▁scenery	-13.061
▁poisonous	-13.061
▁playdate	-13.061
▁hotter	-13.061
Three	-13.061
▁plow	-13.0611
▁inches	-13.0611
obin	-13.0611
▁practised	-13.0611
▁Carla	-13.0613
▁badger	-13.0613
▁protection	-13.0613
▁roamed	-13.0614
▁glimmering	-13.0616
▁Carly	-13.0616
whee	-13.0618
▁thump	-13.0618
▁Sweet	-13.062
œHow	-13.0623
▁miller	-13.0625
▁pounds	-13.0629
▁Pick	-13.0632
reat	-13.0634
▁surfer	-13.0635
▁moo	-13.0638
▁Sleep	-13.0644
arl	-13.0659
▁crafts	-13.0678
▁Jackie	-13.068
▁guarding	-13.0682
▁pr	-13.0714
Fly	-13.0735
▁sleds	-13.0762
Got	-13.0766
zy	-13.08
▁zookeepers	-13.0842
▁Yum	-13.0846
las	-13.0886
▁claw	-13.099
▁movement	-13.0993
▁provid	-13.1007
Honey	-13.1014
Someone	-13.1015
shirt	-13.1015
Moo	-13.1015
Molly	-13.1015
Soon	-13.1015
Never	-13.1017
Ho	-13.1018
aving	-13.1052
Play	-13.106
▁echo	-13.106
▁thrill	-13.106
▁Alicia	-13.1065
▁Angie	-13.1065
▁Carrie	-13.1065
▁Flutter	-13.1065
▁Mina	-13.1065
▁ability	-13.1065
▁aboard	-13.1065
▁born	-13.1065
▁common	-13.1065
▁condition	-13.1065
▁cuddling	-13.1065
▁current	-13.1065
▁gorgeous	-13.1065
▁hollow	-13.1065
▁hummed	-13.1065
▁injured	-13.1065
▁narrow	-13.1065
▁popsicle	-13.1065
▁presence	-13.1065
▁robin	-13.1065
▁shattered	-13.1065
▁shrank	-13.1065
▁stalk	-13.1065
▁tale	-13.1065
▁tentacles	-13.1065
▁unfamiliar	-13.1065
▁amused	-13.1065
▁pantry	-13.1065
▁trigger	-13.1065
▁whizz	-13.1065
▁heavily	-13.1065
▁Joanne	-13.1065
▁icing	-13.1065
▁property	-13.1065
▁Things	-13.1065
▁blur	-13.1065
▁hover	-13.1065
▁springtime	-13.1065
▁Land	-13.1066
▁blessing	-13.1066
▁bullies	-13.1066
▁killed	-13.1067
▁snorted	-13.1069
▁flock	-13.1069
œOk	-13.1069
▁Cheese	-13.1071
▁hunger	-13.1075
▁Goose	-13.1078
▁Tree	-13.1078
œBe	-13.108
▁coughed	-13.1081
▁speaker	-13.1087
▁coolest	-13.109
▁larger	-13.1091
Silly	-13.1092
▁sincere	-13.1095
▁honesty	-13.1096
Once	-13.1098
▁traded	-13.1103
▁Beep	-13.1123
▁Deal	-13.1123
▁tin	-13.1125
▁stuffing	-13.1127
▁sweeter	-13.1134
▁unwrapp	-13.1161
▁goodness	-13.1166
▁Wis	-13.1191
▁types	-13.1198
▁Whee	-13.1226
▁swirls	-13.1253
▁fishy	-13.1256
œO	-13.1288
▁meaning	-13.1325
▁bats	-13.136
tock	-13.1368
▁tickles	-13.1376
▁heels	-13.1417
▁du	-13.1425
▁nightmares	-13.1427
▁month	-13.1464
▁bruise	-13.1464
ced	-13.1464
▁faith	-13.1475
▁drag	-13.1482
bird	-13.1485
Jimmy	-13.1491
Benny	-13.1492
▁embarrass	-13.1531
▁yelp	-13.1536
▁curve	-13.1537
▁venture	-13.1537
▁fond	-13.1539
▁Scott	-13.154
Friend	-13.154
▁whisk	-13.1541
Anything	-13.1541
Jump	-13.1541
ibbit	-13.1541
▁Carol	-13.1541
▁Ernie	-13.1541
▁Girl	-13.1541
▁Hank	-13.1541
▁Sandra	-13.1541
▁Stacy	-13.1541
▁Tia	-13.1541
▁aloud	-13.1541
▁aroma	-13.1541
▁attitude	-13.1541
▁bolt	-13.1541
▁lush	-13.1541
▁peacock	-13.1541
▁striking	-13.1541
▁tempting	-13.1541
▁woodpecker	-13.1541
▁Buttons	-13.1541
▁droop	-13.1541
▁encounter	-13.1541
▁twelve	-13.1541
▁enchant	-13.1541
▁Turtle	-13.1541
▁limp	-13.1541
Ahoy	-13.1541
▁bound	-13.1541
▁recommendation	-13.1541
▁alley	-13.1541
▁rebuild	-13.1541
▁whimpered	-13.1542
▁alongside	-13.1542
▁Share	-13.1543
▁ladybird	-13.1543
▁Oliver	-13.1544
▁untangled	-13.1544
▁reappeared	-13.1545
uickly	-13.1545
▁earned	-13.1545
▁silently	-13.1546
▁peacefulness	-13.1548
▁enjoyable	-13.1549
▁armor	-13.1552
Amy	-13.1557
run	-13.1558
▁weaker	-13.156
ai	-13.1584
Shoo	-13.1588
▁weapons	-13.1605
ize	-13.1613
▁Ally	-13.1638
▁facts	-13.1676
▁bathing	-13.169
▁din	-13.1718
▁sooner	-13.1718
Does	-13.1743
▁Maxi	-13.1783
▁rips	-13.1798
ich	-13.1839
▁situations	-13.184
Achoo	-13.1843
x	-13.1886
opped	-13.1886
▁leans	-13.1903
▁craft	-13.1963
▁petal	-13.198
▁rows	-13.1982
Anytime	-13.199
▁dollar	-13.1997
well	-13.1998
▁invitations	-13.2021
era	-13.203
▁Nan	-13.204
▁grace	-13.2041
Climb	-13.2041
▁blank	-13.2041
Guess	-13.2041
ainbow	-13.2041
ebecca	-13.2041
guar	-13.2041
igzag	-13.2041
tumbling	-13.2041
▁Barry	-13.2041
▁Chad	-13.2041
▁Colin	-13.2041
▁Felix	-13.2041
▁Maia	-13.2041
▁Matilda	-13.2041
▁Muffy	-13.2041
▁Saturday	-13.2041
▁Through	-13.2041
▁caution	-13.2041
▁cooed	-13.2041
▁depths	-13.2041
▁dumb	-13.2041
▁flush	-13.2041
▁grasshopper	-13.2041
▁guardian	-13.2041
▁hooves	-13.2041
▁incredibly	-13.2041
▁jack	-13.2041
▁jingle	-13.2041
▁level	-13.2041
▁mysteries	-13.2041
▁nanny	-13.2041
▁neigh	-13.2041
▁otherwise	-13.2041
▁peculiar	-13.2041
▁poppies	-13.2041
▁reversing	-13.2041
▁rubbish	-13.2041
▁salon	-13.2041
▁screech	-13.2041
▁scrubbing	-13.2041
▁section	-13.2041
▁skate	-13.2041
▁souvenir	-13.2041
▁sturdy	-13.2041
▁thunderstorm	-13.2041
▁toothpaste	-13.2041
▁woodcutter	-13.2041
▁Bree	-13.2041
▁Heidi	-13.2041
▁adopt	-13.2041
▁Year	-13.2041
▁priest	-13.2041
▁Annabelle	-13.2041
▁Sparkle	-13.2041
▁state	-13.2041
▁achievement	-13.2041
▁chopping	-13.2041
▁birdseed	-13.2041
▁luckiest	-13.2041
▁spies	-13.2041
▁Alan	-13.2042
▁Nelly	-13.2042
▁Moon	-13.2042
▁flashes	-13.2042
▁bill	-13.2042
▁Cara	-13.2043
▁Joan	-13.2043
▁marveled	-13.2043
▁transformed	-13.2044
▁carton	-13.2044
NO	-13.2044
▁distracted	-13.2045
▁gu	-13.2047
▁Missy	-13.2051
▁bl	-13.2055
▁Allie	-13.2057
▁Wake	-13.2058
▁thicker	-13.2058
▁smartest	-13.2058
▁quacking	-13.2066
▁obediently	-13.2076
▁raked	-13.2083
▁army	-13.2088
▁explaining	-13.2097
▁Never	-13.2097
▁kindest	-13.211
▁freely	-13.2117
cat	-13.2133
▁Jilly	-13.2146
leaning	-13.2157
utter	-13.219
cy	-13.2193
▁puppets	-13.2208
▁fi	-13.2285
▁Johny	-13.2302
▁winks	-13.2311
can	-13.2313
▁cubs	-13.2376
▁peels	-13.2449
hap	-13.2483
▁shrug	-13.2489
▁cracker	-13.2502
look	-13.2513
Open	-13.2516
Hurry	-13.2516
colored	-13.2517
Leave	-13.2517
why	-13.2518
▁builder	-13.2535
▁reappear	-13.2562
▁snort	-13.2562
▁realise	-13.2563
▁Mick	-13.2566
▁habit	-13.2567
▁express	-13.2567
▁thirty	-13.2567
bsolutely	-13.2567
elvet	-13.2567
▁Alec	-13.2567
▁Bubba	-13.2567
▁Eva	-13.2567
▁Freya	-13.2567
▁Frosty	-13.2567
▁Minnie	-13.2567
▁Spring	-13.2567
▁Tomorrow	-13.2567
▁Tyler	-13.2567
▁community	-13.2567
▁dustpan	-13.2567
▁erupt	-13.2567
▁example	-13.2567
▁hesitation	-13.2567
▁intently	-13.2567
▁partner	-13.2567
▁realizing	-13.2567
▁shimmered	-13.2567
▁shinier	-13.2567
▁stinky	-13.2567
▁tempted	-13.2567
▁workshop	-13.2567
▁Dora	-13.2567
▁calf	-13.2567
▁thieves	-13.2567
▁disappointment	-13.2567
▁lens	-13.2567
▁Bonnie	-13.2567
▁ripple	-13.2567
arla	-13.2567
▁Cora	-13.2567
▁healthier	-13.2567
▁fries	-13.2567
▁sniffled	-13.2567
▁popping	-13.2568
▁Greenie	-13.2568
▁repairman	-13.2568
▁moonlight	-13.2568
Life	-13.2569
▁Other	-13.2569
▁lunchtime	-13.257
œMummy	-13.2571
▁glittery	-13.2571
▁guesses	-13.2572
Danger	-13.2572
▁Spider	-13.2574
▁purring	-13.2575
▁demanding	-13.2586
▁Liam	-13.2588
Hop	-13.259
▁kneeling	-13.2593
▁disappearing	-13.262
anna	-13.2627
▁rewarding	-13.2627
▁spelling	-13.263
ears	-13.2638
▁builders	-13.2653
▁nearer	-13.2669
ouchy	-13.2672
ame	-13.2676
Joe	-13.2692
▁aliens	-13.2722
▁soundly	-13.276
▁pads	-13.2764
ddled	-13.2773
Fi	-13.2803
▁mi	-13.2838
▁costs	-13.2891
hed	-13.2993
oni	-13.2994
ck	-13.3021
▁character	-13.3045
▁date	-13.3047
age	-13.3059
Bird	-13.3073
Jen	-13.3074
beep	-13.3074
usty	-13.3108
▁croak	-13.3113
▁interest	-13.3113
▁squawk	-13.3118
▁chatter	-13.3118
▁blush	-13.3118
▁fail	-13.3118
▁charm	-13.3118
▁compass	-13.3123
▁zig	-13.3123
▁Charles	-13.3123
▁Fairy	-13.3123
▁Furry	-13.3123
▁Gizmo	-13.3123
▁Lina	-13.3123
▁Marie	-13.3123
▁Mighty	-13.3123
▁Otherwise	-13.3123
▁Phil	-13.3123
▁Sprite	-13.3123
▁Wooly	-13.3123
▁ballerina	-13.3123
▁campsite	-13.3123
▁foreshadow	-13.3123
▁glance	-13.3123
▁indoors	-13.3123
▁interrupt	-13.3123
▁keen	-13.3123
▁knives	-13.3123
▁lullaby	-13.3123
▁majestic	-13.3123
▁reckless	-13.3123
▁security	-13.3123
▁snuggling	-13.3123
▁vinegar	-13.3123
Magic	-13.3123
▁Fishy	-13.3123
▁Olly	-13.3123
▁Steph	-13.3123
▁exhibit	-13.3123
▁tiring	-13.3123
▁Singing	-13.3123
▁rack	-13.3123
Books	-13.3123
Beetle	-13.3123
▁fist	-13.3123
▁courageous	-13.3123
▁disgusted	-13.3123
▁lunchbox	-13.3124
▁desperately	-13.3124
▁dozed	-13.3125
▁bold	-13.3125
Nee	-13.3125
▁Billie	-13.3126
▁cawed	-13.3127
▁patches	-13.3128
▁clam	-13.313
▁hatched	-13.313
Should	-13.3132
▁protector	-13.3132
▁misty	-13.3135
œYay	-13.3136
rash	-13.3137
▁youngest	-13.3138
▁Pizza	-13.3142
▁avoided	-13.3142
▁rumbled	-13.3143
▁hisses	-13.3144
illy	-13.315
▁challenged	-13.3151
▁dock	-13.3157
▁dart	-13.3158
▁freshly	-13.3159
▁cutest	-13.3162
ba	-13.3162
▁lookout	-13.3176
▁greatest	-13.3176
▁elders	-13.3179
▁earn	-13.3204
▁longest	-13.3206
▁Does	-13.3227
▁burgers	-13.3264
▁gratefully	-13.3269
▁ducklings	-13.3283
▁dent	-13.3326
ork	-13.3333
andy	-13.3396
▁spi	-13.3583
house	-13.36
▁blade	-13.3634
▁lever	-13.3649
box	-13.3658
shaped	-13.3661
Grandpa	-13.3661
Some	-13.3663
she	-13.368
▁stomp	-13.3701
▁slam	-13.3703
▁complet	-13.3704
▁roam	-13.3706
▁glisten	-13.3706
▁respond	-13.3706
▁approach	-13.3706
▁desperate	-13.3709
▁blend	-13.371
▁Flash	-13.371
▁Snow	-13.371
▁Smoke	-13.3711
▁April	-13.3711
▁Brad	-13.3711
▁Charlotte	-13.3711
▁Clucky	-13.3711
▁Cookie	-13.3711
▁Doctor	-13.3711
▁Fanny	-13.3711
▁Instantly	-13.3711
▁Jemma	-13.3711
▁Lori	-13.3711
▁Margaret	-13.3711
▁Olga	-13.3711
▁Pumpkin	-13.3711
▁Tuffy	-13.3711
▁Winnie	-13.3711
▁angrily	-13.3711
▁brakes	-13.3711
▁bubbling	-13.3711
▁centre	-13.3711
▁childhood	-13.3711
▁cigarette	-13.3711
▁cinema	-13.3711
▁deciding	-13.3711
▁drill	-13.3711
▁enemies	-13.3711
▁facing	-13.3711
▁frustration	-13.3711
▁halves	-13.3711
▁icicle	-13.3711
▁juicie	-13.3711
▁mesmerised	-13.3711
▁niece	-13.3711
▁nightstand	-13.3711
▁pollen	-13.3711
▁process	-13.3711
▁royal	-13.3711
▁sensation	-13.3711
▁service	-13.3711
▁shoelace	-13.3711
▁tantrum	-13.3711
▁tightrope	-13.3711
▁till	-13.3711
▁unfair	-13.3711
▁urging	-13.3711
▁brag	-13.3711
▁capture	-13.3711
▁footprints	-13.3711
▁hips	-13.3711
▁speck	-13.3711
▁unkind	-13.3711
▁savor	-13.3711
Close	-13.3711
▁pace	-13.3711
▁Dina	-13.3711
Pass	-13.3711
▁wetter	-13.3711
▁panicking	-13.3711
▁BunBun	-13.3712
▁teamwork	-13.3712
▁Toni	-13.3712
▁Boom	-13.3713
▁concerned	-13.3713
▁boiled	-13.3715
▁strolled	-13.3719
▁Over	-13.3719
▁mate	-13.3728
▁Peace	-13.3728
▁Imagine	-13.3734
▁crowded	-13.3736
▁seriously	-13.3747
▁Hurry	-13.3769
llowing	-13.3776
▁Salt	-13.3779
▁shyly	-13.3783
ade	-13.379
▁jumper	-13.38
▁per	-13.3803
▁rider	-13.3812
▁zigzagg	-13.3818
▁racers	-13.3819
▁Tell	-13.3826
pic	-13.3828
▁oldest	-13.385
niest	-13.389
Isn	-13.3927
▁dolly	-13.3933
▁bathed	-13.394
▁tingle	-13.3977
▁Mac	-13.3979
Coo	-13.399
▁swap	-13.4063
isa	-13.4083
uit	-13.4124
own	-13.4228
where	-13.4253
▁thorn	-13.4259
▁passenger	-13.4259
▁surrounding	-13.426
don	-13.4266
▁stripe	-13.4271
Sleep	-13.4285
Baa	-13.4286
just	-13.4286
Fire	-13.429
▁chugg	-13.4291
▁Shar	-13.4329
rrr	-13.4331
▁distract	-13.4331
▁squeal	-13.4331
▁untangle	-13.4332
▁explode	-13.4332
▁reflect	-13.4336
▁mitt	-13.4336
Push	-13.4336
ussel	-13.4336
▁Beatrice	-13.4336
▁Confused	-13.4336
▁Gaby	-13.4336
▁Jody	-13.4336
▁Laser	-13.4336
▁Maisie	-13.4336
▁Nia	-13.4336
▁Nurse	-13.4336
▁Panda	-13.4336
▁Peanut	-13.4336
▁Stripey	-13.4336
▁THE	-13.4336
▁Tori	-13.4336
▁Walter	-13.4336
▁Worry	-13.4336
▁angrier	-13.4336
▁carousel	-13.4336
▁devastated	-13.4336
▁doorstep	-13.4336
▁escaping	-13.4336
▁farewell	-13.4336
▁frightening	-13.4336
▁handlebars	-13.4336
▁intelligence	-13.4336
▁keyhole	-13.4336
▁lava	-13.4336
▁microwave	-13.4336
▁nephew	-13.4336
▁option	-13.4336
▁orchard	-13.4336
▁position	-13.4336
▁recess	-13.4336
▁robe	-13.4336
▁trading	-13.4336
▁tugging	-13.4336
▁watermelon	-13.4336
Hooray	-13.4336
▁Croc	-13.4336
▁Timothy	-13.4336
▁arrest	-13.4336
▁desire	-13.4336
▁progress	-13.4336
▁daddies	-13.4336
▁managing	-13.4336
▁yummies	-13.4336
▁lurk	-13.4336
▁grade	-13.4336
▁chatted	-13.4336
New	-13.4336
▁Cheap	-13.4336
▁admit	-13.4336
▁quest	-13.4336
▁packet	-13.4336
▁Toys	-13.4336
▁Tammy	-13.4336
▁Cow	-13.4337
▁jay	-13.4338
▁chatting	-13.4338
▁nudge	-13.4339
▁boiling	-13.434
▁sweating	-13.434
▁bellies	-13.434
▁volcanoes	-13.4341
Stir	-13.4345
▁Celery	-13.4348
▁Stand	-13.4349
▁panting	-13.4352
▁Turn	-13.4354
▁deserved	-13.4355
▁necessary	-13.4358
▁wrecked	-13.437
▁successfully	-13.4377
rung	-13.4382
▁upside	-13.4385
▁Anytime	-13.4401
▁performers	-13.4401
▁loudest	-13.4416
Jo	-13.4422
▁dates	-13.4425
▁marking	-13.4431
▁ski	-13.445
▁Ash	-13.4464
▁begs	-13.4472
▁deeply	-13.45
Move	-13.4592
▁Mole	-13.4621
▁reader	-13.4634
urprisingly	-13.4692
▁layer	-13.4755
lic	-13.4793
▁grandparent	-13.4926
Willie	-13.4926
▁spice	-13.4926
Jenny	-13.4953
Mittens	-13.4953
Emma	-13.4953
Jane	-13.4953
bee	-13.4966
lieve	-13.498
▁cla	-13.4996
▁squish	-13.4997
Fun	-13.4998
▁connect	-13.4998
▁wriggl	-13.4998
▁perch	-13.4998
▁caw	-13.4999
▁Nat	-13.5
▁War	-13.5002
▁fluff	-13.5002
zagg	-13.5003
▁limit	-13.5003
Different	-13.5003
occo	-13.5003
osy	-13.5003
▁Aaron	-13.5003
▁Bambi	-13.5003
▁Brave	-13.5003
▁Cuddles	-13.5003
▁Elisa	-13.5003
▁Friendship	-13.5003
▁Grandmother	-13.5003
▁Hairy	-13.5003
▁Slimy	-13.5003
▁Stacey	-13.5003
▁Sunflower	-13.5003
▁Tippy	-13.5003
▁Witch	-13.5003
▁approval	-13.5003
▁astonished	-13.5003
▁chunk	-13.5003
▁cities	-13.5003
▁coconut	-13.5003
▁confusing	-13.5003
▁confusion	-13.5003
▁department	-13.5003
▁disaster	-13.5003
▁energized	-13.5003
▁fireflies	-13.5003
▁foggy	-13.5003
▁glint	-13.5003
▁goggles	-13.5003
▁hamburger	-13.5003
▁horror	-13.5003
▁independence	-13.5003
▁inseparable	-13.5003
▁instincts	-13.5003
▁lilies	-13.5003
▁loneliness	-13.5003
▁magnificent	-13.5003
▁mushy	-13.5003
▁nibbling	-13.5003
▁paramedic	-13.5003
▁shortcut	-13.5003
▁sleigh	-13.5003
▁stiff	-13.5003
▁thousand	-13.5003
▁vibrant	-13.5003
▁wiggling	-13.5003
▁wrench	-13.5003
Congratulations	-13.5003
▁Cloud	-13.5003
▁brew	-13.5003
▁demonstrat	-13.5003
▁fuss	-13.5003
▁goldfish	-13.5003
▁mini	-13.5003
Abracadabra	-13.5003
▁braid	-13.5003
▁code	-13.5003
▁dragonfly	-13.5003
▁doggie	-13.5003
▁undone	-13.5003
▁Bloo	-13.5003
▁reaction	-13.5003
▁hoof	-13.5003
▁Janice	-13.5003
▁huff	-13.5003
▁invention	-13.5003
▁wax	-13.5003
▁raking	-13.5003
▁toppings	-13.5003
▁whiskers	-13.5003
Park	-13.5003
▁dripped	-13.5003
▁Show	-13.5003
▁wanna	-13.5003
▁Gregg	-13.5003
▁bait	-13.5003
▁snore	-13.5003
▁Marco	-13.5003
▁batch	-13.5003
▁rustle	-13.5003
▁fashionable	-13.5003
▁Owen	-13.5004
▁ruffled	-13.5004
▁stroller	-13.5004
Writing	-13.5004
▁sneakers	-13.5005
▁fondly	-13.5005
▁Gold	-13.5005
œJohn	-13.5007
▁painful	-13.5007
▁ostriches	-13.5008
▁booth	-13.5008
▁rattle	-13.5008
▁brightened	-13.5009
pse	-13.501
▁Carrot	-13.5012
▁floaty	-13.5014
▁stretcher	-13.5015
▁Faster	-13.5015
hoo	-13.5017
▁sickness	-13.5018
▁Elephant	-13.5022
▁Juice	-13.5022
▁Yoga	-13.5022
ancing	-13.5022
▁app	-13.5023
yle	-13.5024
œThere	-13.5031
▁sleeves	-13.5043
▁entering	-13.5058
▁howling	-13.5058
▁Open	-13.5069
▁cucumbers	-13.5071
▁surrendering	-13.5072
▁accepting	-13.5077
▁Ed	-13.5081
meters	-13.5083
ssing	-13.5084
▁resisting	-13.5091
▁shrugs	-13.5103
Gla	-13.5165
Pop	-13.5201
▁delightful	-13.5256
ari	-13.5269
▁bare	-13.5299
ocked	-13.5305
inkling	-13.5332
ami	-13.5371
▁mindful	-13.5399
Whoa	-13.5459
▁qu	-13.5565
ica	-13.5595
▁pancake	-13.5641
Whi	-13.5651
tweet	-13.5667
Everything	-13.5667
From	-13.5667
Everyone	-13.5667
filled	-13.5667
Try	-13.5667
Leo	-13.5667
stick	-13.5669
that	-13.567
▁sweat	-13.5709
▁excite	-13.5713
▁fool	-13.5717
▁extreme	-13.5717
zzz	-13.5717
▁Marley	-13.5717
▁Marshmallow	-13.5717
▁Piggy	-13.5717
▁Silver	-13.5717
Dragon	-13.5717
Stretch	-13.5717
▁Biggy	-13.5717
▁Brother	-13.5717
▁Chess	-13.5717
▁Curly	-13.5717
▁Dash	-13.5717
▁Dennis	-13.5717
▁Figure	-13.5717
▁Lynn	-13.5717
▁Miles	-13.5717
▁Near	-13.5717
▁Officer	-13.5717
▁Paige	-13.5717
▁Pedro	-13.5717
▁Peppa	-13.5717
▁Pixie	-13.5717
▁Puddles	-13.5717
▁Sprinkles	-13.5717
▁Susy	-13.5717
▁Sylvester	-13.5717
▁attendant	-13.5717
▁barbecue	-13.5717
▁ceremony	-13.5717
▁commotion	-13.5717
▁cooperate	-13.5717
▁flippers	-13.5717
▁furious	-13.5717
▁gadgets	-13.5717
▁information	-13.5717
▁invisible	-13.5717
▁obstacle	-13.5717
▁persistence	-13.5717
▁platform	-13.5717
▁possibilities	-13.5717
▁quizzes	-13.5717
▁report	-13.5717
▁rooster	-13.5717
▁trophies	-13.5717
▁wicked	-13.5717
▁wolves	-13.5717
▁worksheet	-13.5717
Freeze	-13.5717
▁defend	-13.5717
▁unfold	-13.5717
▁exist	-13.5717
▁hint	-13.5717
▁Pluto	-13.5717
▁deck	-13.5717
▁double	-13.5717
▁gruff	-13.5717
▁solid	-13.5717
▁Jeremy	-13.5717
▁pickles	-13.5717
▁begun	-13.5717
▁Pinchy	-13.5717
▁disagreement	-13.5717
▁Candy	-13.5717
▁Hopper	-13.5717
▁Drake	-13.5717
▁Gus	-13.5717
▁harmful	-13.5718
▁organised	-13.5718
▁crispy	-13.5718
▁smudge	-13.5718
Ahh	-13.5718
▁knitting	-13.5719
▁Sid	-13.5719
▁Micky	-13.5719
▁lumpy	-13.5719
▁cancel	-13.5719
▁bobbed	-13.5719
▁scowled	-13.5719
▁Jaya	-13.572
Grow	-13.5722
▁Promise	-13.5723
▁chattered	-13.5723
▁switches	-13.5723
▁mooed	-13.5725
ety	-13.5735
▁Count	-13.5738
▁coughing	-13.5744
obot	-13.5748
SH	-13.5752
▁impatiently	-13.5756
▁playhouse	-13.5759
▁succeeding	-13.5767
▁banging	-13.5767
▁golfer	-13.577
▁splashy	-13.5771
March	-13.5785
▁displaying	-13.5801
▁smoothly	-13.5809
▁hooked	-13.582
oss	-13.5821
▁springing	-13.5822
ria	-13.5891
▁howl	-13.5988
▁duckie	-13.6161
Sun	-13.6236
œW	-13.6275
hearted	-13.6314
▁ouch	-13.6334
Per	-13.6347
proved	-13.6381
▁elder	-13.6407
▁cucumber	-13.6408
▁snowflake	-13.641
▁performer	-13.6424
anger	-13.6429
Enjoy	-13.6436
First	-13.6436
welcome	-13.6436
Daisy	-13.6437
friend	-13.6437
Johnny	-13.6437
vin	-13.6445
▁tumble	-13.6463
▁boil	-13.6477
▁transform	-13.6481
▁smash	-13.6481
▁tilt	-13.6481
bbing	-13.6484
▁prick	-13.6485
▁silk	-13.6485
▁gloom	-13.6485
▁Jam	-13.6486
▁consider	-13.6486
olcano	-13.6486
▁glim	-13.6486
▁Black	-13.6486
Coffee	-13.6486
Squeak	-13.6486
iolet	-13.6486
▁Ashlee	-13.6486
▁Bruno	-13.6486
▁Clown	-13.6486
▁Cole	-13.6486
▁Copper	-13.6486
▁Dare	-13.6486
▁Eliza	-13.6486
▁Fae	-13.6486
▁Madeline	-13.6486
▁Maggy	-13.6486
▁Midnight	-13.6486
▁Misty	-13.6486
▁Otter	-13.6486
▁White	-13.6486
▁allergic	-13.6486
▁antlers	-13.6486
▁atmosphere	-13.6486
▁babysitter	-13.6486
▁blacksmith	-13.6486
▁caretaker	-13.6486
▁clucked	-13.6486
▁dries	-13.6486
▁frisbee	-13.6486
▁grandchildren	-13.6486
▁groaned	-13.6486
▁injuries	-13.6486
▁involved	-13.6486
▁nightfall	-13.6486
▁overflowing	-13.6486
▁pendant	-13.6486
▁porridge	-13.6486
▁practising	-13.6486
▁principal	-13.6486
▁purchase	-13.6486
▁refusing	-13.6486
▁retrieve	-13.6486
▁shaky	-13.6486
▁slurp	-13.6486
▁snoring	-13.6486
▁sparrow	-13.6486
▁studio	-13.6486
Whistl	-13.6486
▁ABC	-13.6486
▁Old	-13.6486
▁behold	-13.6486
▁command	-13.6486
▁honeycomb	-13.6486
▁somersault	-13.6486
▁whirl	-13.6486
Working	-13.6486
cious	-13.6486
▁earrings	-13.6486
▁savour	-13.6486
▁construction	-13.6486
▁waitress	-13.6486
▁Winter	-13.6486
▁recovered	-13.6486
▁spiky	-13.6486
▁punch	-13.6486
▁embarrassment	-13.6486
▁Dinner	-13.6486
▁allowance	-13.6486
▁fright	-13.6486
▁Nellie	-13.6486
▁Wings	-13.6486
▁carefree	-13.6487
▁Sleepy	-13.6488
▁risky	-13.6489
▁Mop	-13.6489
▁Shelly	-13.6489
▁wilted	-13.6489
▁loyalty	-13.649
▁scrunched	-13.649
▁uncovered	-13.6491
▁disobedient	-13.6491
▁Piper	-13.6492
▁fourth	-13.6492
▁softened	-13.6492
œWill	-13.6494
Paint	-13.6494
▁Liza	-13.6494
▁describe	-13.6494
▁cheating	-13.6495
spected	-13.6496
▁hideout	-13.6502
▁hatch	-13.6507
▁Beary	-13.651
▁bending	-13.6525
▁dragging	-13.6526
œAre	-13.6528
▁sta	-13.6529
Aw	-13.6533
▁Anny	-13.6538
▁stitched	-13.6549
▁signal	-13.6553
aste	-13.6565
▁pucker	-13.6577
Catch	-13.6591
ollie	-13.6591
▁Justy	-13.6608
Pow	-13.6627
Po	-13.6629
▁Boy	-13.6716
Ooh	-13.6781
▁cran	-13.6874
▁tighten	-13.6909
pon	-13.6997
▁regretful	-13.7164
▁tingl	-13.7182
▁Afterward	-13.7243
▁plac	-13.7253
master	-13.727
Sharing	-13.727
freeze	-13.727
rushed	-13.727
Mark	-13.727
believe	-13.727
sorry	-13.727
Eat	-13.727
good	-13.727
back	-13.7272
Nothing	-13.7272
Sarah	-13.7274
lung	-13.7278
made	-13.7283
Dog	-13.7291
▁creak	-13.731
▁uncover	-13.7315
▁caf	-13.7316
▁kill	-13.7316
unshine	-13.7318
▁Mint	-13.7318
▁Speed	-13.7318
▁clums	-13.7318
▁Crab	-13.7319
nderneath	-13.7319
▁fossil	-13.7319
▁length	-13.7319
▁prisoner	-13.7319
Children	-13.7319
aylee	-13.7319
▁Africa	-13.7319
▁Bizzy	-13.7319
▁Bud	-13.7319
▁China	-13.7319
▁Craig	-13.7319
▁Crusty	-13.7319
▁Elmo	-13.7319
▁Father	-13.7319
▁Flappy	-13.7319
▁Giggle	-13.7319
▁Grandad	-13.7319
▁Hood	-13.7319
▁Hugs	-13.7319
▁Joseph	-13.7319
▁Maple	-13.7319
▁Melina	-13.7319
▁Michelle	-13.7319
▁Orange	-13.7319
▁Poppie	-13.7319
▁Stuart	-13.7319
▁Tabby	-13.7319
▁Trista	-13.7319
▁Yolanda	-13.7319
▁creepy	-13.7319
▁cruel	-13.7319
▁damp	-13.7319
▁daydream	-13.7319
▁eleven	-13.7319
▁farthest	-13.7319
▁grumbling	-13.7319
▁infection	-13.7319
▁private	-13.7319
▁pudding	-13.7319
▁register	-13.7319
▁resume	-13.7319
▁skating	-13.7319
▁storybook	-13.7319
▁throne	-13.7319
▁whining	-13.7319
▁Twit	-13.7319
▁grunt	-13.7319
▁headache	-13.7319
▁sniffles	-13.7319
▁props	-13.7319
▁restoring	-13.7319
▁Lightning	-13.7319
▁angle	-13.732
▁ditch	-13.732
▁shame	-13.732
▁adjust	-13.732
▁unzip	-13.732
Brrr	-13.732
▁threatened	-13.732
▁rotted	-13.732
▁undo	-13.732
immy	-13.732
▁Off	-13.732
Eww	-13.732
▁Mei	-13.732
▁Sad	-13.732
▁Hill	-13.7321
▁mold	-13.7321
▁Pit	-13.7322
▁Tiki	-13.7322
▁contentment	-13.7322
▁Alexis	-13.7322
▁gulped	-13.7323
ocky	-13.7323
▁dirtier	-13.7324
▁concentrated	-13.7324
œMama	-13.7325
▁tickly	-13.7326
▁stomping	-13.7326
fived	-13.733
œWelcome	-13.733
▁strolling	-13.7331
▁leaped	-13.7334
œWait	-13.7334
▁stained	-13.7339
▁leftover	-13.7343
œHere	-13.735
▁Bess	-13.7353
▁fo	-13.7363
▁softness	-13.7367
▁Petey	-13.7367
▁smoother	-13.7367
▁rowing	-13.7368
▁designer	-13.7369
▁yawning	-13.7369
▁engineer	-13.7372
▁stinger	-13.7382
▁howled	-13.739
▁sunk	-13.7402
bear	-13.7413
▁roller	-13.7415
▁rev	-13.7416
▁perk	-13.7426
▁swapp	-13.7699
ula	-13.7707
eading	-13.7779
▁bi	-13.7921
idden	-13.7948
▁Wil	-13.8088
▁puck	-13.8123
▁pea	-13.8137
coming	-13.8154
even	-13.8177
like	-13.8179
piece	-13.8179
Bunny	-13.8179
bang	-13.8179
With	-13.8179
Teddy	-13.8179
Lisa	-13.8179
heard	-13.8179
this	-13.8182
bbed	-13.8187
erri	-13.8191
▁dodg	-13.8206
▁crackle	-13.8216
▁mast	-13.8216
▁continu	-13.8221
▁figur	-13.8221
▁remov	-13.8221
▁conquer	-13.8224
mashed	-13.8227
▁scoot	-13.8227
▁crisp	-13.8227
▁Nell	-13.8227
▁waddle	-13.8228
roccoli	-13.8228
▁invent	-13.8228
appiness	-13.8229
Chirp	-13.8229
▁affect	-13.8229
▁emergencies	-13.8229
▁excellent	-13.8229
Beware	-13.8229
Jordan	-13.8229
Treasure	-13.8229
iko	-13.8229
talkie	-13.8229
▁Alfred	-13.8229
▁Bosco	-13.8229
▁Brandy	-13.8229
▁Chewy	-13.8229
▁Chickie	-13.8229
▁Cozy	-13.8229
▁Crocodile	-13.8229
▁Debby	-13.8229
▁Denise	-13.8229
▁Ethan	-13.8229
▁Grizzly	-13.8229
▁Grumbles	-13.8229
▁Isabel	-13.8229
▁Isla	-13.8229
▁Jennifer	-13.8229
▁Jodie	-13.8229
▁Jumpy	-13.8229
▁Lucie	-13.8229
▁Melanie	-13.8229
▁Petal	-13.8229
▁SNAP	-13.8229
▁Scarecrow	-13.8229
▁Shaun	-13.8229
▁Snake	-13.8229
▁carnival	-13.8229
▁dandelion	-13.8229
▁decrease	-13.8229
▁downstream	-13.8229
▁fifteen	-13.8229
▁flagpole	-13.8229
▁godmother	-13.8229
▁grandkids	-13.8229
▁honor	-13.8229
▁hopscotch	-13.8229
▁ointment	-13.8229
▁outsmart	-13.8229
▁preferr	-13.8229
▁reassuring	-13.8229
▁recycle	-13.8229
▁responsibly	-13.8229
▁route	-13.8229
▁scaly	-13.8229
▁shuffle	-13.8229
▁sixteen	-13.8229
▁slightly	-13.8229
▁slime	-13.8229
▁smoky	-13.8229
▁sphere	-13.8229
▁squat	-13.8229
▁strict	-13.8229
▁supermarket	-13.8229
▁suspicious	-13.8229
▁terribly	-13.8229
▁trimmed	-13.8229
▁unison	-13.8229
▁uniting	-13.8229
▁vari	-13.8229
▁victorious	-13.8229
▁yummier	-13.8229
▁Otto	-13.8229
▁hardworking	-13.8229
▁ribbit	-13.8229
▁Oscar	-13.8229
▁admitted	-13.8229
▁polka	-13.8229
▁Yaya	-13.8229
▁ogre	-13.8229
▁Dotty	-13.8229
▁stash	-13.8229
▁daycare	-13.8229
▁disturbance	-13.8229
▁snipped	-13.8229
▁insistent	-13.8229
▁payoff	-13.8229
▁lioness	-13.8229
▁considerate	-13.8229
▁Pap	-13.8229
▁mended	-13.8229
▁rejoiced	-13.8229
▁Hot	-13.823
▁equally	-13.823
▁diner	-13.823
▁lobby	-13.823
▁sipping	-13.823
ocko	-13.823
▁Bert	-13.823
epeat	-13.8231
▁carrier	-13.8231
oving	-13.8231
▁boost	-13.8231
▁None	-13.8231
▁blessed	-13.8232
▁squirmed	-13.8233
▁Bop	-13.8233
▁joyous	-13.8234
▁nightlight	-13.8236
▁splinter	-13.8236
Free	-13.8236
▁croaking	-13.8237
▁pitcher	-13.8238
▁Mariah	-13.8238
▁witches	-13.8239
▁risen	-13.824
iled	-13.824
▁scolding	-13.8241
▁quicker	-13.8248
▁pointer	-13.8248
▁shaken	-13.8256
▁musical	-13.8267
lope	-13.8295
▁sicker	-13.8304
▁crumble	-13.8305
▁traveler	-13.8369
inner	-13.8407
▁flopp	-13.8417
▁Music	-13.8463
Li	-13.8534
▁loosen	-13.8541
cou	-13.8544
eke	-13.8574
ka	-13.8615
ston	-13.8846
obo	-13.8998
rted	-13.9009
▁marvel	-13.9048
▁riches	-13.9056
izard	-13.9131
▁High	-13.9135
place	-13.9177
Pick	-13.9178
meow	-13.9179
coloured	-13.9179
covered	-13.9179
pilot	-13.9179
clock	-13.9179
handed	-13.9179
Even	-13.9179
Mary	-13.9179
maker	-13.9179
Cat	-13.918
Jim	-13.9182
down	-13.9187
▁passion	-13.9187
udged	-13.922
▁recogniz	-13.922
▁promis	-13.9221
▁squirm	-13.9224
▁scrunch	-13.9224
▁accomplish	-13.9224
▁arrange	-13.9224
▁shove	-13.9226
▁Abbi	-13.9226
auce	-13.9227
▁instant	-13.9227
▁Spark	-13.9227
▁Emil	-13.9228
▁favor	-13.9228
▁Plu	-13.9229
Six	-13.9229
elax	-13.9229
graph	-13.9229
▁Anastasia	-13.9229
▁Cecil	-13.9229
▁Chompy	-13.9229
▁Clarice	-13.9229
▁Cleo	-13.9229
▁Clumsy	-13.9229
▁Fribble	-13.9229
▁Frustrated	-13.9229
▁Gloria	-13.9229
▁Harriet	-13.9229
▁Hawk	-13.9229
▁Lacy	-13.9229
▁Learn	-13.9229
▁Lego	-13.9229
▁Loop	-13.9229
▁Lyla	-13.9229
▁Mackenzie	-13.9229
▁Maja	-13.9229
▁Marvin	-13.9229
▁Missile	-13.9229
▁Nadia	-13.9229
▁Nei	-13.9229
▁Sebastian	-13.9229
▁Silvia	-13.9229
▁Sniffer	-13.9229
▁Tillie	-13.9229
▁Wiggle	-13.9229
▁algae	-13.9229
▁awaited	-13.9229
▁basil	-13.9229
▁boulder	-13.9229
▁breadcrumbs	-13.9229
▁centi	-13.9229
▁cheesy	-13.9229
▁combined	-13.9229
▁complicated	-13.9229
▁cornfield	-13.9229
▁cursed	-13.9229
▁detective	-13.9229
▁device	-13.9229
▁dishonest	-13.9229
▁fading	-13.9229
▁fawn	-13.9229
▁firetruck	-13.9229
▁fortunate	-13.9229
▁grumpiness	-13.9229
▁hungrier	-13.9229
▁injury	-13.9229
▁jeans	-13.9229
▁lawnmower	-13.9229
▁luxurious	-13.9229
▁murky	-13.9229
▁oblige	-13.9229
▁quality	-13.9229
▁rainwater	-13.9229
▁recital	-13.9229
▁rhyme	-13.9229
▁salsa	-13.9229
▁silverware	-13.9229
▁snarled	-13.9229
▁splattered	-13.9229
▁staircase	-13.9229
▁storeowner	-13.9229
▁stunned	-13.9229
▁swerve	-13.9229
▁thinner	-13.9229
▁tiara	-13.9229
▁vacuum	-13.9229
▁voyage	-13.9229
Spicy	-13.9229
Throw	-13.9229
▁Whippy	-13.9229
▁heaviest	-13.9229
▁ponytail	-13.9229
▁relationship	-13.9229
▁resource	-13.9229
▁spiral	-13.9229
Ignor	-13.9229
▁Jonas	-13.9229
▁Lime	-13.9229
▁Slip	-13.9229
▁grasp	-13.9229
▁measurements	-13.9229
▁sizzle	-13.9229
Dream	-13.9229
▁Otty	-13.9229
▁champion	-13.9229
▁Daughter	-13.9229
▁Colorful	-13.9229
▁Gradually	-13.9229
▁sideways	-13.9229
▁Surprised	-13.9229
▁saddle	-13.9229
Swim	-13.9229
Tino	-13.9229
▁products	-13.9229
▁unlike	-13.9229
▁Happyland	-13.9229
▁meaningful	-13.9229
▁coaster	-13.9229
▁exception	-13.9229
▁spout	-13.9229
▁plus	-13.9229
▁Nosy	-13.9229
odle	-13.9229
▁reel	-13.9229
▁Light	-13.9229
▁Island	-13.9229
▁pedalled	-13.9229
▁Bull	-13.923
▁descended	-13.923
▁gleaming	-13.923
▁Fake	-13.923
▁Macy	-13.923
▁adventurers	-13.923
▁burped	-13.9231
▁supportive	-13.9231
▁twitched	-13.9231
▁Jana	-13.9231
▁litter	-13.9232
▁loss	-13.9232
▁Tad	-13.9233
▁flex	-13.9234
▁creaked	-13.9234
▁creaking	-13.9234
œWhen	-13.9235
▁Foxy	-13.9236
▁quickest	-13.9236
▁blended	-13.9237
▁gentleman	-13.9237
▁squawked	-13.9238
▁curved	-13.9238
▁hiked	-13.9241
▁messier	-13.9242
▁ticking	-13.9243
▁selfishness	-13.9243
▁scratchy	-13.9247
▁cleverness	-13.9248
▁feeder	-13.9272
ugged	-13.9284
eyed	-13.9327
kes	-13.9423
enthusiastically	-13.9488
unch	-13.9496
nnie	-13.9665
ammy	-13.9758
mazingly	-13.9859
smi	-14.0057
Only	-14.0289
smelling	-14.0289
Doggy	-14.029
Susie	-14.029
Emily	-14.029
ripe	-14.029
Polly	-14.029
grow	-14.029
Duck	-14.029
under	-14.0291
Say	-14.0291
off	-14.0294
▁whe	-14.0315
▁releas	-14.0332
▁achiev	-14.0333
▁gulp	-14.0335
▁wilt	-14.0335
▁drown	-14.0335
▁disappoint	-14.0335
▁collapse	-14.0336
▁concentrate	-14.0337
tealing	-14.0338
▁timid	-14.0338
▁equal	-14.0338
▁correct	-14.0338
▁exact	-14.0338
▁thirst	-14.0339
▁Flops	-14.0339
▁Marti	-14.0339
Nap	-14.0339
▁plea	-14.0339
▁direct	-14.0339
uriosity	-14.0339
chool	-14.0339
▁surge	-14.034
▁Turt	-14.034
Adventure	-14.034
Home	-14.034
▁Arnold	-14.034
▁Bailey	-14.034
▁Bethany	-14.034
▁Chud	-14.034
▁Clifford	-14.034
▁Horsy	-14.034
▁Mason	-14.034
▁Sister	-14.034
▁croissant	-14.034
▁junior	-14.034
Banana	-14.034
Blech	-14.034
Chocolate	-14.034
Number	-14.034
ivian	-14.034
▁Alfie	-14.034
▁Amber	-14.034
▁America	-14.034
▁Arrow	-14.034
▁Ayla	-14.034
▁Brenda	-14.034
▁Diana	-14.034
▁Dylan	-14.034
▁Elizabeth	-14.034
▁Emmi	-14.034
▁English	-14.034
▁Fierce	-14.034
▁Gavin	-14.034
▁Grover	-14.034
▁Jeffrey	-14.034
▁Jub	-14.034
▁Last	-14.034
▁Nibbles	-14.034
▁Pico	-14.034
▁Purr	-14.034
▁Smiling	-14.034
▁Spud	-14.034
▁Swimming	-14.034
▁Twig	-14.034
▁Twin	-14.034
▁Wiggly	-14.034
▁Wilbur	-14.034
▁Wormie	-14.034
▁Yellow	-14.034
▁abandoned	-14.034
▁arriving	-14.034
▁autumn	-14.034
▁boundaries	-14.034
▁cacti	-14.034
▁carpenter	-14.034
▁channel	-14.034
▁cheetah	-14.034
▁colony	-14.034
▁combination	-14.034
▁competing	-14.034
▁compost	-14.034
▁controller	-14.034
▁cowgirl	-14.034
▁critter	-14.034
▁dribbl	-14.034
▁enclosure	-14.034
▁explanation	-14.034
▁features	-14.034
▁graze	-14.034
▁guidance	-14.034
▁halo	-14.034
▁headphones	-14.034
▁horrible	-14.034
▁hydrant	-14.034
▁impact	-14.034
▁jiggle	-14.034
▁kennel	-14.034
▁ladies	-14.034
▁liar	-14.034
▁liking	-14.034
▁pavement	-14.034
▁receiving	-14.034
▁rollercoaster	-14.034
▁seahorse	-14.034
▁separating	-14.034
▁snuggly	-14.034
▁substitute	-14.034
▁sunburn	-14.034
▁teenager	-14.034
▁troll	-14.034
▁tusks	-14.034
▁tutu	-14.034
▁ungrateful	-14.034
▁unlucky	-14.034
intention	-14.034
▁Painter	-14.034
▁Puss	-14.034
▁shriek	-14.034
▁triumph	-14.034
▁Biff	-14.034
▁entertain	-14.034
▁scann	-14.034
▁Sign	-14.034
▁cannon	-14.034
▁sundae	-14.034
▁contentedly	-14.034
▁sidelines	-14.034
▁boast	-14.034
▁biking	-14.034
▁melodies	-14.034
▁Hippo	-14.034
▁Snowball	-14.034
rofess	-14.034
▁plunge	-14.034
▁Past	-14.034
▁blurry	-14.034
Golf	-14.034
▁Mica	-14.034
▁steadily	-14.034
▁Dougie	-14.034
ippo	-14.034
▁tablecloth	-14.0341
▁host	-14.0341
▁Blow	-14.0341
▁tagged	-14.0341
Choose	-14.0342
▁pasture	-14.0342
▁gumball	-14.0342
▁Flashy	-14.0342
▁discussion	-14.0342
▁Scotty	-14.0342
▁Cable	-14.0343
œSo	-14.0343
▁twitching	-14.0343
▁pounding	-14.0343
▁Willow	-14.0343
▁puffy	-14.0344
▁Gogo	-14.0345
▁pinches	-14.0347
▁mustard	-14.0349
▁squashes	-14.035
▁stubbornness	-14.035
▁potty	-14.0352
illa	-14.0355
▁settl	-14.0496
▁soothe	-14.0539
▁memor	-14.0621
▁produce	-14.0779
▁Gene	-14.0854
minded	-14.0886
▁bal	-14.0949
▁Cour	-14.1178
▁unwrap	-14.1319
ellie	-14.1389
teful	-14.1408
ramble	-14.1426
▁sleeve	-14.1511
▁backward	-14.1513
love	-14.1536
Imagine	-14.1539
aware	-14.1539
woof	-14.154
▁roo	-14.154
Miss	-14.154
Buzz	-14.154
Hoppy	-14.154
Alice	-14.154
play	-14.1541
Jake	-14.1541
zoom	-14.1541
wow	-14.1543
▁Whe	-14.1566
▁sneez	-14.1575
▁concern	-14.1585
▁doze	-14.1585
▁pluck	-14.1586
▁wagg	-14.1589
ique	-14.159
▁Nut	-14.159
▁cash	-14.159
▁Acceptor	-14.159
▁Albertina	-14.159
▁Anchor	-14.159
▁Chantelle	-14.159
▁Deedee	-14.159
▁Faith	-14.159
▁Fleck	-14.159
▁Harper	-14.159
▁Taco	-14.159
▁Tinu	-14.159
▁curry	-14.159
▁effect	-14.159
▁resolve	-14.159
Almost	-14.159
Four	-14.159
ING	-14.159
abbie	-14.159
folk	-14.159
saurus	-14.159
venturing	-14.159
▁Alonzo	-14.159
▁Audrey	-14.159
▁Blocks	-14.159
▁Blossom	-14.159
▁Bright	-14.159
▁Bryan	-14.159
▁Bumpy	-14.159
▁Chirpie	-14.159
▁Clarissa	-14.159
▁Clem	-14.159
▁Curry	-14.159
▁Dolphin	-14.159
▁Eagle	-14.159
▁Edward	-14.159
▁Gabe	-14.159
▁Gorilla	-14.159
▁House	-14.159
▁Mazzy	-14.159
▁Meri	-14.159
▁Mindy	-14.159
▁Moira	-14.159
▁Mushroom	-14.159
▁Mustache	-14.159
▁Pipsqueak	-14.159
▁Pudding	-14.159
▁Scarlett	-14.159
▁Suki	-14.159
▁Trouble	-14.159
▁Whale	-14.159
▁Wilson	-14.159
▁Word	-14.159
▁accessories	-14.159
▁accurate	-14.159
▁adored	-14.159
▁advantage	-14.159
▁announcement	-14.159
▁appetite	-14.159
▁briefcase	-14.159
▁bristles	-14.159
▁challenging	-14.159
▁clover	-14.159
▁crazie	-14.159
▁eyeshadow	-14.159
▁granny	-14.159
▁handkerchief	-14.159
▁massive	-14.159
▁moderation	-14.159
▁noddle	-14.159
▁parlor	-14.159
▁persisted	-14.159
▁preparation	-14.159
▁rainstorm	-14.159
▁remarkable	-14.159
▁salmon	-14.159
▁session	-14.159
▁sketch	-14.159
▁soggy	-14.159
▁techn	-14.159
▁teddies	-14.159
▁terror	-14.159
▁trousers	-14.159
▁twinkly	-14.159
▁unharmed	-14.159
▁violet	-14.159
▁volume	-14.159
▁wondrous	-14.159
Neigh	-14.159
▁Motor	-14.159
▁chomp	-14.159
▁oink	-14.159
▁policemen	-14.159
▁scuttl	-14.159
▁tender	-14.159
▁typing	-14.159
Clap	-14.159
▁churn	-14.159
▁neglect	-14.159
Gently	-14.159
▁Farley	-14.159
ceeded	-14.159
▁Aya	-14.159
▁Wilma	-14.159
▁speechless	-14.159
▁cozie	-14.159
▁glory	-14.159
▁swipe	-14.159
▁wailed	-14.159
▁instructor	-14.159
upert	-14.159
▁mound	-14.159
▁surgery	-14.159
▁Brianne	-14.159
▁Sharin	-14.159
▁connection	-14.159
▁Janelle	-14.159
▁Gilly	-14.159
▁Dusty	-14.159
Aww	-14.159
▁Cheri	-14.159
▁Goldie	-14.159
▁habitat	-14.159
▁Pippy	-14.159
▁hornet	-14.159
▁postbox	-14.159
▁Strongy	-14.159
Cool	-14.1591
▁Nappy	-14.1591
▁Moni	-14.1591
▁Cari	-14.1591
▁Theresa	-14.1591
▁Minty	-14.1591
▁Sheep	-14.1592
▁silky	-14.1592
▁timidly	-14.1592
Grab	-14.1592
anish	-14.1592
▁Far	-14.1594
▁cure	-14.1594
▁itches	-14.1595
▁Pipo	-14.1595
Shrink	-14.1597
kie	-14.1674
tended	-14.1677
ologi	-14.1702
Pay	-14.1705
Higher	-14.1709
Flour	-14.1745
▁marvell	-14.1817
ippe	-14.1996
uddled	-14.2512
ixing	-14.2518
wed	-14.2599
▁Bri	-14.2734
Was	-14.2817
▁detail	-14.2941
▁outdoor	-14.2942
free	-14.2966
necessary	-14.2967
Pizza	-14.2967
Love	-14.2968
Pink	-14.2968
paper	-14.2968
People	-14.2968
reverse	-14.2969
Millie	-14.2969
George	-14.2969
check	-14.2969
happy	-14.2969
Peter	-14.2969
drop	-14.2969
Bella	-14.2969
jar	-14.2969
▁grea	-14.2977
▁prance	-14.3007
▁bless	-14.301
▁boar	-14.3013
▁scowl	-14.3013
▁squint	-14.3013
▁practise	-14.3014
▁hesitate	-14.3014
▁bobb	-14.3014
▁Elli	-14.3016
creen	-14.3016
▁grocer	-14.3017
▁greed	-14.3017
▁guilt	-14.3017
ugar	-14.3017
ubber	-14.3018
eddy	-14.3018
▁Jessi	-14.3018
▁Susa	-14.3018
arriage	-14.3018
▁Trix	-14.3018
▁Annabel	-14.3018
isappointed	-14.3018
radually	-14.3018
▁react	-14.3018
▁disc	-14.3018
urple	-14.3018
▁fortune	-14.3018
Careful	-14.3018
Basil	-14.3018
Greetings	-14.3018
Honk	-14.3018
Parrot	-14.3018
Poison	-14.3018
Teacher	-14.3018
arranging	-14.3018
hythm	-14.3018
pplied	-14.3018
▁Adele	-14.3018
▁Adriana	-14.3018
▁Angelina	-14.3018
▁Astrid	-14.3018
▁Bernie	-14.3018
▁Blinky	-14.3018
▁Braveheart	-14.3018
▁Brooke	-14.3018
▁Buffy	-14.3018
▁Callie	-14.3018
▁Chicken	-14.3018
▁Cloe	-14.3018
▁Crystal	-14.3018
▁Cubby	-14.3018
▁Cubey	-14.3018
▁Deaf	-14.3018
▁Delighted	-14.3018
▁Dependable	-14.3018
▁Elena	-14.3018
▁Elin	-14.3018
▁Finders	-14.3018
▁Forget	-14.3018
▁Froggie	-14.3018
▁Gertie	-14.3018
▁Hippy	-14.3018
▁Lala	-14.3018
▁Lanny	-14.3018
▁Lazy	-14.3018
▁Leticia	-14.3018
▁Lillie	-14.3018
▁Madelyn	-14.3018
▁Marlon	-14.3018
▁Marta	-14.3018
▁Melody	-14.3018
▁Mild	-14.3018
▁Morris	-14.3018
▁Paco	-14.3018
▁Pancake	-14.3018
▁Peaches	-14.3018
▁Prissy	-14.3018
▁Puffy	-14.3018
▁Sabina	-14.3018
▁Selina	-14.3018
▁Seto	-14.3018
▁Settle	-14.3018
▁Squeeker	-14.3018
▁Sully	-14.3018
▁Tickles	-14.3018
▁Tini	-14.3018
▁addition	-14.3018
▁advise	-14.3018
▁afloat	-14.3018
▁alphabet	-14.3018
▁antennae	-14.3018
▁balcony	-14.3018
▁beanstalk	-14.3018
▁border	-14.3018
▁chalkboard	-14.3018
▁chameleon	-14.3018
▁clambered	-14.3018
▁collage	-14.3018
▁compartment	-14.3018
▁corridor	-14.3018
▁despair	-14.3018
▁drape	-14.3018
▁envy	-14.3018
▁errand	-14.3018
▁fingertips	-14.3018
▁flamingo	-14.3018
▁fragrance	-14.3018
▁glacier	-14.3018
▁grapefruit	-14.3018
▁grazing	-14.3018
▁harmonica	-14.3018
▁imaginative	-14.3018
▁jigsaw	-14.3018
▁joey	-14.3018
▁kilos	-14.3018
▁lightbulb	-14.3018
▁motorbike	-14.3018
▁obedience	-14.3018
▁obvious	-14.3018
▁overnight	-14.3018
▁padlock	-14.3018
▁plump	-14.3018
▁potential	-14.3018
▁privacy	-14.3018
▁productive	-14.3018
▁require	-14.3018
▁research	-14.3018
▁sample	-14.3018
▁sheepishly	-14.3018
▁snowstorm	-14.3018
▁streak	-14.3018
▁studies	-14.3018
▁stylish	-14.3018
▁territory	-14.3018
▁trustworthy	-14.3018
▁uneasy	-14.3018
▁unstuck	-14.3018
▁zone	-14.3018
Butterfly	-14.3018
Marry	-14.3018
▁Hunter	-14.3018
▁benefi	-14.3018
▁clink	-14.3018
▁eachother	-14.3018
▁fidget	-14.3018
▁funnier	-14.3018
▁omelet	-14.3018
▁sentence	-14.3018
▁stump	-14.3018
▁volunteer	-14.3018
Print	-14.3018
Woah	-14.3018
▁devour	-14.3018
▁select	-14.3018
▁sledding	-14.3018
▁stubb	-14.3018
onths	-14.3018
▁misbehave	-14.3018
▁tackle	-14.3018
▁Beartie	-14.3018
▁Tidy	-14.3018
▁Biggs	-14.3018
▁Belle	-14.3018
▁dedication	-14.3018
▁Sora	-14.3018
▁blind	-14.3018
▁Bath	-14.3018
▁dozing	-14.3018
Surf	-14.3018
▁Jamel	-14.3018
▁Sheila	-14.3018
▁carving	-14.3018
▁trace	-14.3018
▁Trixie	-14.3018
▁gown	-14.3018
▁grumpier	-14.3018
▁Smiles	-14.3018
▁Napp	-14.3018
▁director	-14.3019
rious	-14.3019
▁unwell	-14.3019
▁Golden	-14.3019
▁stray	-14.3019
olcanoes	-14.3019
▁spicie	-14.3019
▁popper	-14.3019
▁dozen	-14.3019
▁tourist	-14.3019
indness	-14.3019
▁pedalling	-14.302
▁Gara	-14.302
▁peddle	-14.302
▁Pole	-14.302
▁bun	-14.302
easing	-14.3021
▁ki	-14.3027
Gas	-14.3028
ridge	-14.3038
▁ahh	-14.3047
Salad	-14.3078
▁pranc	-14.3079
▁ri	-14.3092
Shake	-14.3127
▁faithful	-14.3228
hini	-14.3295
Wake	-14.3306
▁Louis	-14.3369
asting	-14.3783
▁strap	-14.3891
▁judg	-14.4336
ncient	-14.4425
▁slo	-14.4579
▁pound	-14.4603
▁manner	-14.4608
berries	-14.4632
Tell	-14.4633
Count	-14.4634
Juice	-14.4634
Yoga	-14.4634
Elephant	-14.4634
Turn	-14.4634
Peace	-14.4634
Tree	-14.4634
Pretty	-14.4635
Fox	-14.4635
applaud	-14.4635
six	-14.4635
Luna	-14.4635
Brownie	-14.4635
Grace	-14.4635
Ellie	-14.4635
measure	-14.4635
wished	-14.4635
because	-14.4635
together	-14.4635
shore	-14.4636
who	-14.4636
▁twitch	-14.4675
▁whimper	-14.468
▁grumble	-14.4681
▁reassure	-14.4681
▁numb	-14.4681
▁Smok	-14.4683
▁whil	-14.4683
▁Mik	-14.4683
▁Nel	-14.4683
trike	-14.4683
tupid	-14.4683
▁glo	-14.4684
▁Strong	-14.4684
▁easie	-14.4684
xercise	-14.4684
▁speech	-14.4685
▁Color	-14.4685
ject	-14.4685
osquitoes	-14.4685
▁avail	-14.4685
▁Explor	-14.4685
▁minu	-14.4685
Bounc	-14.4685
Grape	-14.4685
Success	-14.4685
Surrender	-14.4685
Yep	-14.4685
lantern	-14.4685
ntrigued	-14.4685
▁Aimee	-14.4685
▁Alina	-14.4685
▁Alligator	-14.4685
▁Barbara	-14.4685
▁Bernard	-14.4685
▁Bibo	-14.4685
▁Blake	-14.4685
▁Bunbun	-14.4685
▁Casey	-14.4685
▁Caterpillar	-14.4685
▁Chomper	-14.4685
▁Christine	-14.4685
▁Club	-14.4685
▁Connie	-14.4685
▁Cream	-14.4685
▁Darling	-14.4685
▁Debbie	-14.4685
▁Dippy	-14.4685
▁Driver	-14.4685
▁Eager	-14.4685
▁Easter	-14.4685
▁Fabian	-14.4685
▁Fifi	-14.4685
▁Flip	-14.4685
▁Franny	-14.4685
▁French	-14.4685
▁Fruit	-14.4685
▁Ghost	-14.4685
▁Greta	-14.4685
▁Hana	-14.4685
▁Harmony	-14.4685
▁Harvey	-14.4685
▁Hugo	-14.4685
▁Isaac	-14.4685
▁Jesus	-14.4685
▁Jia	-14.4685
▁Lamb	-14.4685
▁Lassie	-14.4685
▁Lexi	-14.4685
▁Lucia	-14.4685
▁Mallory	-14.4685
▁Margo	-14.4685
▁Mario	-14.4685
▁Miraculously	-14.4685
▁Monster	-14.4685
▁Navy	-14.4685
▁Nicola	-14.4685
▁Niki	-14.4685
▁Petunia	-14.4685
▁Plop	-14.4685
▁Simba	-14.4685
▁Skelly	-14.4685
▁Snuffy	-14.4685
▁Splodge	-14.4685
▁Swimmy	-14.4685
▁Taz	-14.4685
▁Tizzy	-14.4685
▁Trudy	-14.4685
▁Wolf	-14.4685
▁accompany	-14.4685
▁aquarium	-14.4685
▁attentive	-14.4685
▁awkward	-14.4685
▁banner	-14.4685
▁barnyard	-14.4685
▁cavity	-14.4685
▁chandelier	-14.4685
▁charity	-14.4685
▁confront	-14.4685
▁crooked	-14.4685
▁dazzl	-14.4685
▁disbelief	-14.4685
▁ecstatic	-14.4685
▁eighteen	-14.4685
▁essential	-14.4685
▁eternity	-14.4685
▁explosion	-14.4685
▁fishermen	-14.4685
▁fourteen	-14.4685
q	-15.7804
